<pad>	0
<unk>	0
<sos>	0
<eos>	0
▁t	-0
he	-1
▁a	-2
▁the	-3
▁w	-4
in	-5
re	-6
ou	-7
nd	-8
▁s	-9
er	-10
▁o	-11
ha	-12
is	-13
ll	-14
▁b	-15
▁f	-16
or	-17
en	-18
on	-19
ed	-20
es	-21
▁y	-22
it	-23
▁and	-24
▁d	-25
▁you	-26
▁c	-27
▁to	-28
▁m	-29
▁A	-30
▁of	-31
ing	-32
▁p	-33
ho	-34
▁n	-35
ar	-36
at	-37
▁be	-38
ve	-39
le	-40
▁in	-41
om	-42
hat	-43
ot	-44
an	-45
se	-46
▁is	-47
▁T	-48
ay	-49
▁H	-50
▁ha	-51
▁g	-52
▁I	-53
li	-54
▁W	-55
st	-56
▁e	-57
▁S	-58
▁for	-59
▁re	-60
ow	-61
id	-62
ill	-63
ver	-64
▁they	-65
ion	-66
hi	-67
▁u	-68
▁not	-69
▁them	-70
ent	-71
▁who	-72
▁he	-73
▁(	-74
ut	-75
▁that	-76
ce	-77
▁All	-78
ah	-79
ly	-80
▁will	-81
od	-82
▁it	-83
ir	-84
ld	-85
▁M	-86
▁on	-87
▁th	-88
▁Allah	-89
gh	-90
ct	-91
ur	-92
ith	-93
▁He	-94
al	-95
▁L	-96
▁The	-97
et	-98
ri	-99
▁C	-100
▁G	-101
ad	-102
▁We	-103
▁l	-104
▁And	-105
as	-106
▁are	-107
▁have	-108
ch	-109
rom	-110
ess	-111
ght	-112
▁with	-113
▁we	-114
▁your	-115
if	-116
▁D	-117
ro	-118
▁B	-119
▁do	-120
▁an	-121
▁their	-122
ord	-123
ra	-124
il	-125
▁from	-126
▁P	-127
her	-128
▁k	-129
▁se	-130
im	-131
hose	-132
▁O	-133
ge	-134
▁h	-135
lie	-136
th	-137
am	-138
nt	-139
▁as	-140
▁de	-141
▁"	-142
hen	-143
ain	-144
▁those	-145
ck	-146
▁sa	-147
▁F	-148
op	-149
ke	-150
▁su	-151
ter	-152
▁God	-153
..	-154
ation	-155
ould	-156
▁hi	-157
▁Lord	-158
▁st	-159
▁com	-160
ul	-161
▁what	-162
now	-163
▁me	-164
▁Y	-165
ers	-166
▁him	-167
▁N	-168
est	-169
ic	-170
▁li	-171
ore	-172
▁sha	-173
▁E	-174
ven	-175
ment	-176
out	-177
▁this	-178
ate	-179
ong	-180
▁-	-181
▁all	-182
▁whi	-183
our	-184
▁or	-185
▁R	-186
ind	-187
▁when	-188
▁there	-189
▁has	-190
ard	-191
pt	-192
all	-193
▁know	-194
▁shall	-195
▁but	-196
▁dis	-197
▁ex	-198
▁said	-199
and	-200
▁go	-201
pe	-202
▁belie	-203
▁ne	-204
▁pe	-205
ant	-206
be	-207
▁con	-208
un	-209
▁up	-210
▁us	-211
ig	-212
ople	-213
ble	-214
▁tr	-215
em	-216
▁so	-217
▁%	-218
ight	-219
▁his	-220
▁which	-221
art	-222
▁[	-223
us	-224
▁if	-225
ust	-226
▁people	-227
▁was	-228
res	-229
ol	-230
▁pro	-231
▁say	-232
ame	-233
red	-234
pp	-235
os	-236
▁fa	-237
▁You	-238
vers	-239
ive	-240
ok	-241
han	-242
▁by	-243
▁le	-244
age	-245
one	-246
▁no	-247
▁wor	-248
▁U	-249
ves	-250
▁then	-251
urn	-252
ake	-253
ome	-254
ast	-255
▁_	-256
reat	-257
▁were	-258
ist	-259
eed	-260
ect	-261
▁my	-262
▁ab	-263
▁ear	-264
▁one	-265
fore	-266
▁man	-267
ous	-268
▁'	-269
um	-270
▁am	-271
ost	-272
ise	-273
ear	-274
▁They	-275
qu	-276
▁v	-277
▁fo	-278
ure	-279
ther	-280
...	-281
▁can	-282
▁His	-283
ings	-284
▁at	-285
ook	-286
▁Th	-287
ag	-288
▁ri	-289
how	-290
ak	-291
▁gu	-292
ide	-293
▁j	-294
."	-295
▁un	-296
ever	-297
▁any	-298
au	-299
own	-300
ort	-301
ign	-302
ish	-303
rou	-304
sel	-305
▁Him	-306
ave	-307
to	-308
ack	-309
▁pl	-310
▁had	-311
ity	-312
ire	-313
belie	-314
▁earth	-315
ful	-316
▁been	-317
▁So	-318
▁would	-319
▁al	-320
▁unt	-321
▁may	-322
▁out	-323
fter	-324
▁But	-325
▁ye	-326
fe	-327
▁good	-328
▁right	-329
▁see	-330
ert	-331
ance	-332
▁It	-333
▁V	-334
uth	-335
very	-336
▁K	-337
▁believe	-338
ew	-339
▁before	-340
ving	-341
ove	-342
ath	-343
cc	-344
▁J	-345
ade	-346
ved	-347
ue	-348
▁down	-349
▁upon	-350
▁only	-351
▁sh	-352
eng	-353
ount	-354
▁ag	-355
▁mess	-356
ail	-357
▁come	-358
ud	-359
cept	-360
ile	-361
▁day	-362
▁other	-363
▁r	-364
so	-365
▁“	-366
able	-367
▁did	-368
▁pr	-369
▁ind	-370
way	-371
▁sure	-372
▁thou	-373
are	-374
other	-375
▁ad	-376
▁rem	-377
ily	-378
ace	-379
ase	-380
▁wr	-381
ac	-382
erc	-383
▁whom	-384
ff	-385
▁sent	-386
▁ev	-387
here	-388
▁made	-389
we	-390
ies	-391
ward	-392
▁No	-393
▁Day	-394
▁over	-395
▁br	-396
),	-397
ction	-398
lo	-399
▁like	-400
ress	-401
▁en	-402
▁hea	-403
▁bec	-404
ause	-405
▁bet	-406
▁among	-407
ans	-408
▁In	-409
▁turn	-410
▁than	-411
▁again	-412
ass	-413
te	-414
llow	-415
ine	-416
ab	-417
▁Mess	-418
▁ho	-419
▁Do	-420
ness	-421
▁comm	-422
eth	-423
▁about	-424
ry	-425
▁disbelie	-426
▁Then	-427
▁indeed	-428
ep	-429
▁This	-430
▁should	-431
).	-432
ink	-433
ted	-434
▁some	-435
▁sign	-436
ject	-437
for	-438
▁Our	-439
ime	-440
▁heaven	-441
▁back	-442
▁nor	-443
ham	-444
▁our	-445
▁unto	-446
▁Say	-447
nder	-448
pen	-449
lect	-450
el	-451
ach	-452
iven	-453
of	-454
▁If	-455
nds	-456
the	-457
▁truth	-458
selves	-459
▁after	-460
▁every	-461
▁rec	-462
▁What	-463
▁sp	-464
led	-465
ber	-466
▁spe	-467
▁ar	-468
▁pun	-469
▁surely	-470
▁lo	-471
▁away	-472
hed	-473
▁Who	-474
▁call	-475
▁make	-476
hip	-477
▁fear	-478
▁des	-479
▁im	-480
▁bl	-481
oin	-482
▁creat	-483
▁follow	-484
▁cont	-485
wn	-486
▁per	-487
ren	-488
▁want	-489
ice	-490
▁give	-491
ite	-492
ree	-493
▁way	-494
▁reve	-495
▁forg	-496
▁punish	-497
▁Se	-498
▁ser	-499
▁&	-500
▁guid	-501
iz	-502
pl	-503
▁tw	-504
▁into	-505
ations	-506
▁ret	-507
▁does	-508
▁That	-509
▁men	-510
ru	-511
▁against	-512
ather	-513
lp	-514
▁time	-515
▁Ind	-516
▁Is	-517
▁except	-518
ning	-519
▁Pro	-520
▁life	-521
▁Book	-522
▁res	-523
ci	-524
▁heart	-525
urre	-526
▁For	-527
▁On	-528
▁Messeng	-529
ory	-530
▁wrong	-531
▁heavens	-532
▁te	-533
▁There	-534
ound	-535
▁pre	-536
▁When	-537
▁evil	-538
▁ask	-539
.”	-540
▁its	-541
cre	-542
ls	-543
ef	-544
▁her	-545
▁rep	-546
▁where	-547
▁comp	-548
▁acc	-549
▁di	-550
▁punishment	-551
not	-552
▁file	-553
▁sin	-554
▁app	-555
▁part	-556
▁St	-557
▁As	-558
▁things	-559
cri	-560
▁cle	-561
ks	-562
▁set	-563
▁here	-564
▁take	-565
ertain	-566
ror	-567
lder	-568
ult	-569
▁war	-570
ence	-571
xt	-572
ally	-573
▁cha	-574
ship	-575
ages	-576
▁given	-577
▁created	-578
▁just	-579
ull	-580
▁My	-581
▁world	-582
▁new	-583
▁two	-584
▁help	-585
ions	-586
ated	-587
▁get	-588
ary	-589
▁let	-590
▁den	-591
▁how	-592
ont	-593
▁ke	-594
▁1	-595
form	-596
eds	-597
▁off	-598
▁Re	-599
▁could	-600
▁co	-601
ens	-602
me	-603
▁return	-604
▁Indeed	-605
phe	-606
thing	-607
ft	-608
▁wom	-609
▁believers	-610
▁ra	-611
▁hearts	-612
▁great	-613
read	-614
ween	-615
▁most	-616
▁signs	-617
ied	-618
▁Lo	-619
▁Un	-620
▁came	-621
▁faith	-622
▁she	-623
▁%1	-624
▁command	-625
▁while	-626
▁ent	-627
str	-628
rie	-629
▁thee	-630
vi	-631
▁Ad	-632
lease	-633
▁more	-634
▁between	-635
▁list	-636
hamm	-637
▁cl	-638
▁hat	-639
▁Those	-640
▁message	-641
▁Q	-642
phet	-643
▁To	-644
▁certain	-645
▁find	-646
ub	-647
▁never	-648
ces	-649
▁best	-650
▁clear	-651
self	-652
oses	-653
▁because	-654
ale	-655
iful	-656
▁show	-657
iss	-658
hy	-659
▁deeds	-660
▁even	-661
▁used	-662
▁themselves	-663
▁ver	-664
per	-665
▁Messenger	-666
▁gr	-667
▁har	-668
ater	-669
ons	-670
ercy	-671
▁prom	-672
tle	-673
▁under	-674
act	-675
den	-676
▁–	-677
ali	-678
ledge	-679
▁bring	-680
ient	-681
cl	-682
ors	-683
▁qu	-684
▁2	-685
ower	-686
▁Be	-687
▁reward	-688
hild	-689
gin	-690
oth	-691
▁pray	-692
▁own	-693
ised	-694
▁worship	-695
▁sou	-696
▁sc	-697
▁chan	-698
▁add	-699
▁reveal	-700
▁‘	-701
▁another	-702
ose	-703
▁knowledge	-704
ting	-705
hammad	-706
uhammad	-707
get	-708
mit	-709
▁Ex	-710
▁name	-711
▁night	-712
▁don	-713
iving	-714
▁these	-715
les	-716
▁knows	-717
▁dest	-718
ap	-719
▁think	-720
▁ap	-721
ark	-722
▁prov	-723
▁might	-724
▁fe	-725
ives	-726
▁Ver	-727
ither	-728
eous	-729
▁cre	-730
▁pass	-731
▁Us	-732
ants	-733
▁De	-734
less	-735
ember	-736
ition	-737
▁hath	-738
We	-739
ific	-740
▁ob	-741
▁now	-742
ify	-743
ode	-744
erciful	-745
iles	-746
▁bo	-747
▁mercy	-748
erm	-749
urely	-750
▁fir	-751
do	-752
▁er	-753
▁select	-754
uch	-755
aw	-756
▁Can	-757
▁folder	-758
?"	-759
▁certainly	-760
lic	-761
▁land	-762
ia	-763
ple	-764
▁How	-765
soever	-766
ait	-767
after	-768
▁verily	-769
00	-770
▁sub	-771
hing	-772
itness	-773
▁better	-774
▁supp	-775
hes	-776
▁forth	-777
ian	-778
▁inv	-779
▁well	-780
up	-781
▁bel	-782
ick	-783
▁Show	-784
▁father	-785
▁open	-786
oss	-787
▁ord	-788
ution	-789
▁until	-790
▁therein	-791
▁send	-792
IN	-793
▁women	-794
▁righteous	-795
ty	-796
▁such	-797
rought	-798
ars	-799
▁Com	-800
▁warn	-801
▁Verily	-802
▁ac	-803
▁god	-804
indow	-805
▁ever	-806
▁thy	-807
lig	-808
hether	-809
mer	-810
▁ro	-811
ious	-812
▁Tr	-813
▁Surely	-814
▁revealed	-815
▁ange	-816
▁Al	-817
▁Moses	-818
ie	-819
▁fl	-820
▁witness	-821
bey	-822
▁look	-823
▁hum	-824
▁brought	-825
▁got	-826
og	-827
▁Prophet	-828
port	-829
▁sl	-830
▁Most	-831
▁An	-832
▁place	-833
round	-834
oc	-835
▁att	-836
ption	-837
ms	-838
▁Rem	-839
▁Here	-840
ang	-841
ates	-842
▁act	-843
▁error	-844
▁work	-845
aught	-846
▁tor	-847
▁save	-848
▁Go	-849
hildren	-850
▁gave	-851
▁guidance	-852
bra	-853
▁many	-854
▁conf	-855
▁Res	-856
▁leave	-857
▁gra	-858
▁end	-859
believers	-860
▁others	-861
▁Qur	-862
▁Add	-863
▁nothing	-864
ides	-865
▁found	-866
▁po	-867
▁each	-868
▁Your	-869
▁need	-870
iew	-871
▁Me	-872
onn	-873
▁mo	-874
▁deny	-875
▁cause	-876
▁pres	-877
▁em	-878
▁keep	-879
▁Could	-880
ize	-881
▁aff	-882
▁dev	-883
▁dr	-884
▁water	-885
lete	-886
▁belong	-887
stand	-888
▁Fire	-889
ains	-890
▁fav	-891
▁sw	-892
kind	-893
atter	-894
urrent	-895
):	-896
▁word	-897
▁Please	-898
▁appoin	-899
.'	-900
ute	-901
ished	-902
▁seek	-903
▁tri	-904
▁power	-905
▁tak	-906
▁serv	-907
▁cannot	-908
▁path	-909
▁disbelieve	-910
▁selected	-911
ents	-912
just	-913
▁angels	-914
▁going	-915
▁torment	-916
▁without	-917
ced	-918
▁Or	-919
▁account	-920
gg	-921
oh	-922
▁disc	-923
▁put	-924
irect	-925
▁rest	-926
▁tell	-927
ob	-928
▁brother	-929
ument	-930
▁true	-931
▁kill	-932
▁Select	-933
▁ass	-934
▁understand	-935
▁being	-936
▁Merciful	-937
▁ref	-938
rough	-939
▁sec	-940
▁messeng	-941
ip	-942
alk	-943
▁son	-944
▁astr	-945
ener	-946
row	-947
▁gl	-948
▁use	-949
▁toward	-950
▁ins	-951
▁trans	-952
▁whatever	-953
▁astray	-954
av	-955
its	-956
▁Ev	-957
▁En	-958
als	-959
▁inform	-960
▁dif	-961
▁messages	-962
▁'%	-963
air	-964
▁--	-965
▁death	-966
▁Im	-967
▁bes	-968
▁dou	-969
▁love	-970
roy	-971
▁Muhammad	-972
▁hear	-973
▁str	-974
ix	-975
▁pat	-976
The	-977
ited	-978
his	-979
],	-980
ond	-981
giving	-982
▁whose	-983
heck	-984
▁kind	-985
leas	-986
pect	-987
▁disbelievers	-988
▁jud	-989
▁light	-990
▁revel	-991
▁none	-992
▁year	-993
▁read	-994
▁speak	-995
▁tra	-996
▁full	-997
umber	-998
vel	-999
▁rece	-1000
ision	-1001
▁destroy	-1002
▁ca	-1003
cer	-1004
▁must	-1005
▁Hell	-1006
▁become	-1007
ible	-1008
doers	-1009
▁too	-1010
ready	-1011
roup	-1012
▁through	-1013
▁unbelievers	-1014
All	-1015
ware	-1016
▁sk	-1017
ittle	-1018
uck	-1019
ouse	-1020
ING	-1021
▁fire	-1022
▁enter	-1023
▁hands	-1024
aste	-1025
▁first	-1026
▁Know	-1027
▁av	-1028
▁Are	-1029
▁mankind	-1030
▁files	-1031
▁inter	-1032
▁ey	-1033
▁remember	-1034
urrection	-1035
▁whoever	-1036
▁dec	-1037
▁chast	-1038
▁"%	-1039
▁left	-1040
▁reject	-1041
▁Dis	-1042
▁Not	-1043
▁She	-1044
ardens	-1045
▁turned	-1046
ided	-1047
▁reg	-1048
▁believed	-1049
hara	-1050
▁yet	-1051
idden	-1052
rit	-1053
hold	-1054
otect	-1055
atch	-1056
▁Cannot	-1057
▁Hereafter	-1058
.’	-1059
▁car	-1060
▁inst	-1061
▁already	-1062
▁done	-1063
opy	-1064
gra	-1065
ified	-1066
▁also	-1067
ometh	-1068
▁soul	-1069
day	-1070
▁window	-1071
▁cons	-1072
▁relig	-1073
gether	-1074
play	-1075
▁def	-1076
▁neither	-1077
com	-1078
ating	-1079
cript	-1080
ared	-1081
ts	-1082
▁image	-1083
ered	-1084
▁thing	-1085
▁New	-1086
▁dead	-1087
▁ones	-1088
▁little	-1089
ask	-1090
▁though	-1091
▁resp	-1092
soci	-1093
▁yourselves	-1094
▁pleas	-1095
▁fore	-1096
▁accept	-1097
ne	-1098
▁bre	-1099
ype	-1100
▁Have	-1101
▁cho	-1102
▁One	-1103
cess	-1104
ata	-1105
▁Pl	-1106
omething	-1107
▁anything	-1108
▁everything	-1109
ica	-1110
gress	-1111
▁guided	-1112
▁bless	-1113
ined	-1114
▁col	-1115
▁mis	-1116
▁hand	-1117
▁requ	-1118
▁vers	-1119
▁pur	-1120
▁much	-1121
▁test	-1122
▁promise	-1123
oy	-1124
▁server	-1125
▁obey	-1126
▁doub	-1127
▁current	-1128
▁long	-1129
ring	-1130
▁trust	-1131
ell	-1132
haraoh	-1133
▁stand	-1134
▁support	-1135
word	-1136
hind	-1137
▁both	-1138
tc	-1139
ault	-1140
▁wait	-1141
▁ben	-1142
nter	-1143
▁cor	-1144
▁Mus	-1145
ighty	-1146
▁Amer	-1147
alth	-1148
▁start	-1149
▁religion	-1150
▁Resurrection	-1151
ned	-1152
▁associ	-1153
alid	-1154
▁behind	-1155
▁matter	-1156
▁order	-1157
▁mak	-1158
owed	-1159
▁prayer	-1160
well	-1161
alend	-1162
▁mail	-1163
▁together	-1164
▁frie	-1165
ract	-1166
▁create	-1167
▁meet	-1168
▁fight	-1169
ired	-1170
ists	-1171
ges	-1172
kay	-1173
▁forgiven	-1174
ph	-1175
know	-1176
▁very	-1177
▁suff	-1178
▁mar	-1179
olution	-1180
ead	-1181
▁bu	-1182
ners	-1183
ild	-1184
miss	-1185
This	-1186
atan	-1187
▁saying	-1188
▁guard	-1189
▁book	-1190
ures	-1191
▁Con	-1192
▁eat	-1193
alse	-1194
▁something	-1195
▁happ	-1196
▁deli	-1197
▁equ	-1198
ric	-1199
▁guide	-1200
br	-1201
▁Let	-1202
▁fail	-1203
▁concer	-1204
▁forb	-1205
▁poss	-1206
bo	-1207
▁Fo	-1208
ugin	-1209
ccess	-1210
▁run	-1211
▁head	-1212
braham	-1213
ax	-1214
▁pain	-1215
▁unjust	-1216
▁chastise	-1217
▁det	-1218
▁dist	-1219
▁Ye	-1220
▁children	-1221
▁Er	-1222
▁towards	-1223
ife	-1224
▁eyes	-1225
ten	-1226
▁protect	-1227
ict	-1228
▁comes	-1229
▁Z	-1230
rib	-1231
▁address	-1232
▁id	-1233
▁America	-1234
nto	-1235
by	-1236
ough	-1237
▁pers	-1238
▁dri	-1239
dit	-1240
Allah	-1241
iv	-1242
▁3	-1243
▁direct	-1244
▁besides	-1245
odu	-1246
▁mount	-1247
alendar	-1248
▁Thus	-1249
▁Pr	-1250
▁mon	-1251
mon	-1252
▁revelations	-1253
▁Error	-1254
▁above	-1255
▁forgiveness	-1256
▁sy	-1257
▁Why	-1258
▁last	-1259
▁belongs	-1260
▁enj	-1261
▁Cont	-1262
with	-1263
▁Par	-1264
▁die	-1265
▁told	-1266
lose	-1267
!"	-1268
ailed	-1269
▁Set	-1270
▁exp	-1271
man	-1272
igh	-1273
inn	-1274
ged	-1275
▁stri	-1276
▁drink	-1277
ained	-1278
".	-1279
aring	-1280
▁information	-1281
dom	-1282
aid	-1283
ments	-1284
▁Pharaoh	-1285
chi	-1286
▁Whether	-1287
▁Pe	-1288
▁lead	-1289
vere	-1290
▁enem	-1291
▁doing	-1292
ys	-1293
▁term	-1294
▁By	-1295
▁old	-1296
▁near	-1297
▁Quran	-1298
▁appointed	-1299
cument	-1300
put	-1301
▁hard	-1302
▁number	-1303
onna	-1304
▁contact	-1305
line	-1306
▁called	-1307
▁forgive	-1308
▁years	-1309
uthor	-1310
▁dwell	-1311
right	-1312
▁hell	-1313
su	-1314
sten	-1315
▁repent	-1316
alue	-1317
▁peace	-1318
▁Open	-1319
▁wealth	-1320
▁Name	-1321
▁pay	-1322
▁apost	-1323
▁servants	-1324
▁chastisement	-1325
ried	-1326
▁SA	-1327
lied	-1328
▁gonna	-1329
▁Messengers	-1330
▁harm	-1331
▁loc	-1332
].	-1333
ork	-1334
ps	-1335
▁doubt	-1336
▁false	-1337
▁try	-1338
▁At	-1339
▁project	-1340
ash	-1341
used	-1342
ser	-1343
ual	-1344
▁play	-1345
▁File	-1346
raise	-1347
▁Now	-1348
▁able	-1349
▁fall	-1350
▁concerning	-1351
▁Sign	-1352
▁Evolution	-1353
▁rel	-1354
ource	-1355
▁est	-1356
▁fam	-1357
▁pri	-1358
AN	-1359
▁sm	-1360
▁Edit	-1361
adise	-1362
▁Oh	-1363
▁dra	-1364
▁judge	-1365
▁cur	-1366
int	-1367
▁seen	-1368
yp	-1369
▁therefore	-1370
▁recom	-1371
▁Abraham	-1372
▁wish	-1373
▁still	-1374
▁ans	-1375
▁avail	-1376
▁Well	-1377
▁mor	-1378
▁sky	-1379
▁These	-1380
▁Save	-1381
▁Wise	-1382
▁wills	-1383
ertific	-1384
▁blo	-1385
▁group	-1386
▁please	-1387
▁sun	-1388
▁mother	-1389
▁hon	-1390
tern	-1391
▁transgress	-1392
,"	-1393
hood	-1394
ib	-1395
▁stay	-1396
earch	-1397
▁news	-1398
inder	-1399
abl	-1400
ec	-1401
ience	-1402
▁List	-1403
▁painful	-1404
▁Thou	-1405
▁diffe	-1406
ires	-1407
▁home	-1408
▁Man	-1409
▁alone	-1410
▁Sha	-1411
▁bur	-1412
▁etc	-1413
▁bar	-1414
men	-1415
▁live	-1416
aim	-1417
▁means	-1418
▁took	-1419
▁law	-1420
▁Ch	-1421
arch	-1422
rate	-1423
ities	-1424
▁form	-1425
tend	-1426
▁promised	-1427
▁destroyed	-1428
▁View	-1429
▁grie	-1430
▁recompen	-1431
▁really	-1432
mb	-1433
▁sins	-1434
ention	-1435
▁Jud	-1436
▁kn	-1437
▁commit	-1438
ody	-1439
My	-1440
ifest	-1441
az	-1442
▁free	-1443
▁text	-1444
af	-1445
▁incre	-1446
▁taken	-1447
▁SAW	-1448
▁imp	-1449
▁prostr	-1450
▁Sh	-1451
ways	-1452
▁Hey	-1453
▁sor	-1454
▁Cre	-1455
▁days	-1456
▁gener	-1457
ins	-1458
arent	-1459
▁bear	-1460
▁hold	-1461
ical	-1462
▁Where	-1463
--	-1464
ield	-1465
und	-1466
ters	-1467
▁mag	-1468
▁success	-1469
oe	-1470
▁grant	-1471
▁fru	-1472
▁lie	-1473
▁why	-1474
▁aut	-1475
▁raised	-1476
▁Pre	-1477
lam	-1478
▁far	-1479
▁ed	-1480
▁Message	-1481
pert	-1482
stem	-1483
.)	-1484
ized	-1485
▁manifest	-1486
▁spend	-1487
▁Col	-1488
gment	-1489
▁Unto	-1490
▁talk	-1491
▁compan	-1492
▁data	-1493
▁patient	-1494
ope	-1495
▁task	-1496
▁same	-1497
mission	-1498
▁establ	-1499
▁flow	-1500
▁spec	-1501
▁change	-1502
And	-1503
▁Satan	-1504
▁messengers	-1505
ines	-1506
▁Will	-1507
wise	-1508
▁favour	-1509
ude	-1510
?”	-1511
▁writ	-1512
▁anyone	-1513
▁desire	-1514
▁creation	-1515
ened	-1516
ial	-1517
▁char	-1518
from	-1519
▁Move	-1520
raight	-1521
▁author	-1522
▁cli	-1523
▁tre	-1524
▁Failed	-1525
▁quest	-1526
ows	-1527
▁adv	-1528
▁div	-1529
▁whosoever	-1530
ext	-1531
▁saw	-1532
fer	-1533
▁town	-1534
▁whether	-1535
Muhammad	-1536
load	-1537
vious	-1538
▁possess	-1539
ertificate	-1540
oint	-1541
▁Don	-1542
▁tid	-1543
▁wife	-1544
▁fathers	-1545
▁Did	-1546
▁count	-1547
He	-1548
▁around	-1549
▁Mo	-1550
▁Use	-1551
umb	-1552
▁Sc	-1553
▁himself	-1554
▁present	-1555
ames	-1556
▁wis	-1557
▁Truth	-1558
▁Forgiving	-1559
▁nation	-1560
▁denied	-1561
ank	-1562
▁tou	-1563
▁Isra	-1564
▁thought	-1565
ians	-1566
▁family	-1567
▁verses	-1568
uring	-1569
ote	-1570
AR	-1571
▁Come	-1572
▁month	-1573
▁bount	-1574
▁face	-1575
ideo	-1576
▁Paradise	-1577
io	-1578
ches	-1579
▁Search	-1580
osed	-1581
light	-1582
wer	-1583
▁soon	-1584
▁benef	-1585
▁Script	-1586
hange	-1587
▁par	-1588
▁enc	-1589
attle	-1590
ived	-1591
sp	-1592
▁display	-1593
▁ill	-1594
creen	-1595
pass	-1596
ones	-1597
▁secre	-1598
▁tidings	-1599
▁morning	-1600
▁People	-1601
▁load	-1602
oun	-1603
▁gone	-1604
▁human	-1605
▁Create	-1606
What	-1607
▁Yes	-1608
▁next	-1609
ased	-1610
▁asked	-1611
view	-1612
ER	-1613
▁taste	-1614
Our	-1615
bar	-1616
ner	-1617
▁knew	-1618
ured	-1619
▁ext	-1620
ices	-1621
▁works	-1622
▁till	-1623
▁wives	-1624
▁failed	-1625
▁cast	-1626
ds	-1627
bit	-1628
ols	-1629
ood	-1630
▁art	-1631
▁gives	-1632
▁Yeah	-1633
▁truthful	-1634
pty	-1635
▁Israel	-1636
It	-1637
mand	-1638
arer	-1639
▁evid	-1640
▁fact	-1641
▁blind	-1642
ulf	-1643
▁mean	-1644
▁plan	-1645
▁Their	-1646
▁disbelieved	-1647
▁Yet	-1648
You	-1649
,-	-1650
▁gardens	-1651
▁lies	-1652
▁state	-1653
If	-1654
OU	-1655
▁burn	-1656
▁Ar	-1657
ully	-1658
tings	-1659
▁feel	-1660
▁three	-1661
▁mountains	-1662
iness	-1663
▁jinn	-1664
cks	-1665
▁opp	-1666
venant	-1667
orn	-1668
ature	-1669
▁conn	-1670
▁rivers	-1671
ues	-1672
lders	-1673
▁receive	-1674
▁listen	-1675
▁connect	-1676
▁password	-1677
▁Get	-1678
ently	-1679
▁Em	-1680
▁mind	-1681
▁says	-1682
▁Whi	-1683
▁sons	-1684
▁check	-1685
▁mem	-1686
▁host	-1687
▁view	-1688
▁lost	-1689
▁ter	-1690
▁document	-1691
lf	-1692
▁Folder	-1693
▁search	-1694
ug	-1695
▁Aut	-1696
sed	-1697
▁magic	-1698
use	-1699
ched	-1700
▁recompense	-1701
▁provided	-1702
▁person	-1703
ex	-1704
ilter	-1705
gram	-1706
▁sea	-1707
ourse	-1708
▁type	-1709
▁Last	-1710
▁messenger	-1711
▁Belie	-1712
Do	-1713
▁Ser	-1714
▁port	-1715
ording	-1716
▁Bl	-1717
mes	-1718
▁commun	-1719
lict	-1720
▁Nay	-1721
ility	-1722
uty	-1723
ense	-1724
▁ign	-1725
▁Remove	-1726
▁covenant	-1727
aves	-1728
▁thereof	-1729
▁sim	-1730
▁user	-1731
▁house	-1732
ination	-1733
▁plugin	-1734
▁words	-1735
ger	-1736
rent	-1737
ream	-1738
ached	-1739
▁firm	-1740
▁sur	-1741
arden	-1742
alted	-1743
▁Okay	-1744
▁date	-1745
ctions	-1746
cy	-1747
▁Asia	-1748
▁lest	-1749
osition	-1750
ypoc	-1751
▁vis	-1752
asure	-1753
▁king	-1754
▁value	-1755
bs	-1756
▁mode	-1757
▁plac	-1758
▁eas	-1759
▁Sp	-1760
▁calendar	-1761
▁high	-1762
ptions	-1763
▁believing	-1764
▁became	-1765
▁prep	-1766
▁saved	-1767
▁min	-1768
▁heed	-1769
pend	-1770
▁cal	-1771
▁associate	-1772
hir	-1773
▁parent	-1774
▁remain	-1775
ator	-1776
▁produ	-1777
de	-1778
atic	-1779
cend	-1780
▁arg	-1781
▁desires	-1782
▁bir	-1783
▁question	-1784
▁coming	-1785
▁Every	-1786
▁makes	-1787
▁color	-1788
▁wronged	-1789
▁provision	-1790
▁fulf	-1791
▁care	-1792
uration	-1793
▁forbidden	-1794
leted	-1795
icient	-1796
▁Ap	-1797
▁exam	-1798
0}	-1799
▁Conf	-1800
▁faces	-1801
▁Hour	-1802
▁remove	-1803
{0}	-1804
▁enemy	-1805
▁severe	-1806
▁tem	-1807
▁Right	-1808
▁gods	-1809
▁X	-1810
▁due	-1811
uge	-1812
▁known	-1813
▁Had	-1814
▁inf	-1815
ative	-1816
▁bef	-1817
▁few	-1818
fully	-1819
▁hypoc	-1820
▁sing	-1821
▁exce	-1822
▁less	-1823
▁Up	-1824
▁Copy	-1825
▁Unable	-1826
▁Nor	-1827
▁hur	-1828
▁Look	-1829
▁aw	-1830
▁key	-1831
▁sight	-1832
▁dark	-1833
▁Check	-1834
ane	-1835
irm	-1836
▁gre	-1837
known	-1838
▁food	-1839
▁went	-1840
▁affair	-1841
ason	-1842
▁side	-1843
▁fin	-1844
▁Mary	-1845
▁Such	-1846
oke	-1847
▁occ	-1848
▁following	-1849
▁fuck	-1850
▁conce	-1851
ton	-1852
▁hour	-1853
▁UR	-1854
angu	-1855
▁fun	-1856
▁souls	-1857
▁rain	-1858
▁having	-1859
▁equal	-1860
aj	-1861
▁didn	-1862
▁returned	-1863
ken	-1864
▁Islam	-1865
▁since	-1866
▁greater	-1867
▁Enter	-1868
ME	-1869
ling	-1870
▁changes	-1871
▁admon	-1872
▁followed	-1873
ili	-1874
▁praise	-1875
▁friends	-1876
▁5	-1877
▁move	-1878
▁enjoy	-1879
▁woman	-1880
ider	-1881
ets	-1882
);	-1883
▁Some	-1884
AP	-1885
▁Children	-1886
▁Sub	-1887
▁submit	-1888
▁Scripture	-1889
▁prof	-1890
▁share	-1891
▁Path	-1892
▁Start	-1893
▁exist	-1894
cribe	-1895
▁secret	-1896
▁%2	-1897
▁regard	-1898
verse	-1899
▁line	-1900
▁Gu	-1901
▁city	-1902
reng	-1903
urity	-1904
▁Knowing	-1905
▁meeting	-1906
▁With	-1907
seen	-1908
▁Inv	-1909
▁met	-1910
▁Image	-1911
▁proof	-1912
ism	-1913
▁(%	-1914
shi	-1915
▁using	-1916
▁disp	-1917
▁edit	-1918
▁heard	-1919
▁Rep	-1920
▁swear	-1921
rop	-1922
▁Eur	-1923
▁fast	-1924
▁Contact	-1925
▁directory	-1926
▁least	-1927
lled	-1928
ery	-1929
▁along	-1930
lythe	-1931
oney	-1932
▁Ke	-1933
▁system	-1934
▁straight	-1935
rog	-1936
atus	-1937
▁permission	-1938
imes	-1939
▁Cli	-1940
▁break	-1941
▁authority	-1942
esus	-1943
▁warner	-1944
que	-1945
ek	-1946
DE	-1947
▁blessings	-1948
▁ali	-1949
chive	-1950
▁partners	-1951
▁rejected	-1952
pped	-1953
▁Su	-1954
▁exc	-1955
▁answer	-1956
na	-1957
▁within	-1958
▁streng	-1959
▁Gardens	-1960
▁sound	-1961
▁appoint	-1962
▁Le	-1963
▁dep	-1964
ret	-1965
lication	-1966
▁forever	-1967
▁case	-1968
▁parents	-1969
lear	-1970
▁Def	-1971
▁hope	-1972
▁mod	-1973
▁Gra	-1974
▁Musli	-1975
uly	-1976
▁Fir	-1977
▁reach	-1978
▁unless	-1979
▁bestowed	-1980
ari	-1981
ales	-1982
▁Europe	-1983
ager	-1984
▁cond	-1985
▁inte	-1986
▁los	-1987
▁stop	-1988
min	-1989
▁worshi	-1990
▁fem	-1991
ouses	-1992
▁corru	-1993
ilt	-1994
onds	-1995
ander	-1996
▁commanded	-1997
▁party	-1998
▁always	-1999
▁Noah	-2000
▁Ho	-2001
rites	-2002
▁vict	-2003
▁Mr	-2004
▁Des	-2005
▁Mon	-2006
▁duty	-2007
illed	-2008
▁child	-2009
▁ut	-2010
bed	-2011
▁expl	-2012
thy	-2013
▁Just	-2014
▁appe	-2015
▁four	-2016
▁killed	-2017
▁today	-2018
ckon	-2019
▁thus	-2020
▁default	-2021
rol	-2022
▁easy	-2023
▁option	-2024
▁tar	-2025
ech	-2026
oseph	-2027
▁4	-2028
▁Chr	-2029
▁plain	-2030
▁suffer	-2031
ran	-2032
end	-2033
▁CD	-2034
▁friend	-2035
ntic	-2036
▁oath	-2037
ma	-2038
▁hide	-2039
▁Which	-2040
▁grace	-2041
▁seven	-2042
▁guides	-2043
har	-2044
▁wind	-2045
▁empty	-2046
aster	-2047
▁seized	-2048
▁miss	-2049
▁size	-2050
▁moon	-2051
▁strong	-2052
▁Cl	-2053
ular	-2054
▁refuge	-2055
▁el	-2056
▁ru	-2057
cious	-2058
▁ship	-2059
▁Af	-2060
▁Sy	-2061
▁measure	-2062
God	-2063
▁prepared	-2064
▁different	-2065
▁Comp	-2066
▁according	-2067
pr	-2068
aying	-2069
ustom	-2070
▁glad	-2071
▁reminder	-2072
hentic	-2073
▁falsehood	-2074
come	-2075
▁weak	-2076
▁behold	-2077
umn	-2078
ON	-2079
ored	-2080
▁prophet	-2081
ss	-2082
▁bad	-2083
▁close	-2084
▁passed	-2085
rence	-2086
▁prev	-2087
▁page	-2088
box	-2089
unk	-2090
▁Tell	-2091
▁tree	-2092
▁Delete	-2093
▁hidden	-2094
▁Whoever	-2095
lection	-2096
▁abide	-2097
ush	-2098
Ind	-2099
olk	-2100
▁sit	-2101
▁hasten	-2102
▁item	-2103
▁during	-2104
▁benefit	-2105
▁watch	-2106
ually	-2107
▁complete	-2108
▁/	-2109
ublic	-2110
▁sho	-2111
▁Send	-2112
▁mention	-2113
name	-2114
omatic	-2115
▁contin	-2116
ta	-2117
aut	-2118
▁cri	-2119
onnect	-2120
▁drive	-2121
▁lot	-2122
▁real	-2123
▁Import	-2124
▁bounty	-2125
my	-2126
ier	-2127
▁propert	-2128
▁App	-2129
▁sle	-2130
▁Would	-2131
▁200	-2132
▁willed	-2133
▁instead	-2134
▁Afric	-2135
▁truly	-2136
▁won	-2137
▁desp	-2138
▁Mighty	-2139
▁caused	-2140
▁daught	-2141
\\	-2142
▁Spe	-2143
▁report	-2144
▁appro	-2145
▁write	-2146
▁perform	-2147
▁Musa	-2148
▁incl	-2149
▁earned	-2150
▁format	-2151
▁running	-2152
AT	-2153
▁0	-2154
▁au	-2155
vert	-2156
▁either	-2157
▁whomever	-2158
itude	-2159
▁thanks	-2160
ump	-2161
▁Gener	-2162
ils	-2163
▁sir	-2164
mighty	-2165
▁record	-2166
claim	-2167
▁mark	-2168
▁cry	-2169
ging	-2170
▁wherein	-2171
▁inher	-2172
▁reason	-2173
▁folders	-2174
▁Out	-2175
▁oper	-2176
▁single	-2177
▁conceal	-2178
rible	-2179
▁Qu	-2180
▁Wor	-2181
▁guil	-2182
ession	-2183
▁enough	-2184
▁Therefore	-2185
)?	-2186
▁admit	-2187
▁Christ	-2188
▁Rec	-2189
▁main	-2190
ike	-2191
▁grow	-2192
CK	-2193
▁guilty	-2194
▁Address	-2195
▁es	-2196
▁ve	-2197
▁See	-2198
▁expect	-2199
▁secure	-2200
LL	-2201
▁Knower	-2202
▁Judgment	-2203
▁disbelief	-2204
ES	-2205
▁Believers	-2206
▁befall	-2207
▁faithful	-2208
▁received	-2209
▁aware	-2210
▁const	-2211
irt	-2212
embr	-2213
▁past	-2214
▁arrog	-2215
▁cr	-2216
cked	-2217
▁cut	-2218
▁Word	-2219
▁apostles	-2220
ews	-2221
▁object	-2222
embrance	-2223
▁available	-2224
▁apostle	-2225
ety	-2226
▁gir	-2227
▁lay	-2228
▁mighty	-2229
▁Invalid	-2230
ories	-2231
▁Only	-2232
▁Africa	-2233
▁grieve	-2234
rain	-2235
▁losers	-2236
VD	-2237
▁Good	-2238
▁Apost	-2239
pel	-2240
ident	-2241
▁field	-2242
▁Enable	-2243
▁z	-2244
ply	-2245
▁turns	-2246
▁archive	-2247
him	-2248
▁sends	-2249
▁lawful	-2250
▁prostrate	-2251
▁decl	-2252
lytheists	-2253
▁hypocrites	-2254
▁Even	-2255
▁pen	-2256
▁spread	-2257
hite	-2258
under	-2259
▁example	-2260
▁increase	-2261
▁join	-2262
▁Color	-2263
▁program	-2264
▁offer	-2265
▁Project	-2266
▁yourself	-2267
rone	-2268
:%	-2269
▁Signs	-2270
ises	-2271
▁bus	-2272
▁forget	-2273
▁Display	-2274
IS	-2275
icked	-2276
▁wrongdoers	-2277
▁Adam	-2278
▁eff	-2279
▁deal	-2280
Ad	-2281
ca	-2282
▁dust	-2283
ribution	-2284
gan	-2285
omin	-2286
ister	-2287
▁Apostle	-2288
igure	-2289
ev	-2290
▁Jesus	-2291
asts	-2292
obey	-2293
▁returns	-2294
▁abode	-2295
▁overt	-2296
▁import	-2297
▁event	-2298
▁video	-2299
uses	-2300
OR	-2301
▁Of	-2302
▁hast	-2303
▁okay	-2304
▁walk	-2305
▁homes	-2306
▁langu	-2307
▁Co	-2308
▁Default	-2309
▁limit	-2310
▁living	-2311
▁rebe	-2312
▁burden	-2313
▁Ab	-2314
aliz	-2315
▁boy	-2316
▁money	-2317
udio	-2318
▁occur	-2319
▁disobey	-2320
med	-2321
outh	-2322
▁backs	-2323
iguration	-2324
body	-2325
▁bit	-2326
rigin	-2327
▁cattle	-2328
▁reckon	-2329
",	-2330
aun	-2331
top	-2332
▁big	-2333
asks	-2334
▁inc	-2335
▁From	-2336
▁course	-2337
rab	-2338
then	-2339
ought	-2340
▁Am	-2341
▁fr	-2342
fort	-2343
▁pal	-2344
vered	-2345
▁build	-2346
▁Joseph	-2347
▁whatsoever	-2348
▁pure	-2349
arn	-2350
▁game	-2351
▁brings	-2352
cle	-2353
Is	-2354
▁jour	-2355
▁ignor	-2356
▁confirm	-2357
ng	-2358
▁small	-2359
eg	-2360
Moses	-2361
▁fruits	-2362
▁Window	-2363
▁)	-2364
▁af	-2365
▁High	-2366
▁delete	-2367
▁reached	-2368
For	-2369
▁supported	-2370
▁once	-2371
ney	-2372
haps	-2373
▁forward	-2374
bal	-2375
▁remo	-2376
▁patience	-2377
ML	-2378
▁seem	-2379
▁images	-2380
ogn	-2381
▁May	-2382
ented	-2383
▁anim	-2384
▁apart	-2385
▁Gl	-2386
Indeed	-2387
ron	-2388
ails	-2389
ences	-2390
▁placed	-2391
par	-2392
idth	-2393
▁granted	-2394
▁treat	-2395
mm	-2396
ading	-2397
▁obser	-2398
▁replied	-2399
)!	-2400
▁request	-2401
▁ung	-2402
knowing	-2403
▁source	-2404
▁wisdom	-2405
▁plot	-2406
▁Remember	-2407
▁speech	-2408
▁inherit	-2409
▁accepted	-2410
most	-2411
eting	-2412
▁taught	-2413
▁someone	-2414
▁certificate	-2415
con	-2416
lock	-2417
▁Noble	-2418
▁touch	-2419
▁exists	-2420
▁gather	-2421
hief	-2422
▁copy	-2423
▁Command	-2424
sen	-2425
oice	-2426
▁bro	-2427
▁serve	-2428
rest	-2429
ressed	-2430
▁decre	-2431
▁enjoin	-2432
?'	-2433
rer	-2434
▁deb	-2435
▁choose	-2436
place	-2437
▁pleased	-2438
reme	-2439
lying	-2440
▁whole	-2441
▁Muslims	-2442
▁Take	-2443
compass	-2444
ison	-2445
▁Than	-2446
▁Br	-2447
▁Tham	-2448
Pro	-2449
▁priv	-2450
▁warning	-2451
▁specified	-2452
▁ce	-2453
▁foot	-2454
▁repentance	-2455
uh	-2456
ceive	-2457
▁Creat	-2458
▁argument	-2459
▁del	-2460
▁hurt	-2461
▁darkness	-2462
ruct	-2463
▁Per	-2464
ining	-2465
ai	-2466
▁respect	-2467
roud	-2468
▁simil	-2469
▁red	-2470
cause	-2471
▁folk	-2472
▁afflict	-2473
ades	-2474
ising	-2475
▁font	-2476
▁poor	-2477
▁Mail	-2478
▁Back	-2479
rences	-2480
raid	-2481
rect	-2482
▁fair	-2483
▁bond	-2484
▁insp	-2485
▁looking	-2486
ony	-2487
▁KDE	-2488
▁hus	-2489
▁feed	-2490
rew	-2491
▁susten	-2492
▁sustenance	-2493
ktop	-2494
ionate	-2495
oid	-2496
▁Ay	-2497
band	-2498
ixed	-2499
▁mult	-2500
phan	-2501
▁chosen	-2502
▁second	-2503
nel	-2504
set	-2505
pping	-2506
▁else	-2507
earing	-2508
▁utter	-2509
▁subject	-2510
▁times	-2511
▁theirs	-2512
▁waiting	-2513
▁position	-2514
▁witnesses	-2515
ateful	-2516
No	-2517
ung	-2518
ital	-2519
▁Clear	-2520
▁later	-2521
▁recite	-2522
▁Loc	-2523
▁Home	-2524
▁Work	-2525
▁sorry	-2526
▁version	-2527
alty	-2528
cribed	-2529
▁drown	-2530
▁job	-2531
▁6	-2532
▁stead	-2533
rypt	-2534
▁fab	-2535
aving	-2536
▁Acc	-2537
▁ran	-2538
▁houses	-2539
lobal	-2540
▁terrible	-2541
▁Pass	-2542
▁delivered	-2543
oom	-2544
raw	-2545
▁respite	-2546
velop	-2547
▁control	-2548
▁ann	-2549
oured	-2550
▁dear	-2551
Be	-2552
▁making	-2553
▁TH	-2554
▁forgot	-2555
▁grateful	-2556
▁whomsoever	-2557
xy	-2558
asting	-2559
▁access	-2560
▁provide	-2561
▁Time	-2562
▁feet	-2563
ayer	-2564
tain	-2565
▁naught	-2566
cription	-2567
▁blessed	-2568
▁brothers	-2569
▁establish	-2570
fast	-2571
▁YOU	-2572
▁thank	-2573
▁button	-2574
Who	-2575
▁ears	-2576
▁established	-2577
▁proud	-2578
▁afraid	-2579
▁arrogant	-2580
▁faithless	-2581
▁liars	-2582
cing	-2583
▁card	-2584
▁wants	-2585
▁forbid	-2586
▁aught	-2587
▁determ	-2588
▁Cho	-2589
olbar	-2590
▁Find	-2591
aith	-2592
othe	-2593
▁point	-2594
▁worlds	-2595
iod	-2596
hone	-2597
▁coll	-2598
edient	-2599
ued	-2600
▁blame	-2601
▁fruit	-2602
▁attach	-2603
ateg	-2604
athe	-2605
irit	-2606
▁husband	-2607
▁DVD	-2608
▁bow	-2609
▁virt	-2610
▁Click	-2611
▁yours	-2612
▁opened	-2613
their	-2614
▁earn	-2615
▁cover	-2616
▁justice	-2617
▁status	-2618
hentication	-2619
ift	-2620
work	-2621
▁contain	-2622
ceed	-2623
▁Jews	-2624
▁favor	-2625
▁install	-2626
▁Page	-2627
▁Files	-2628
amp	-2629
▁clou	-2630
awn	-2631
wor	-2632
▁intercess	-2633
▁defe	-2634
▁myself	-2635
▁Text	-2636
▁descend	-2637
)."	-2638
▁age	-2639
▁cro	-2640
▁loss	-2641
▁HT	-2642
fic	-2643
▁wicked	-2644
▁arri	-2645
▁shown	-2646
':	-2647
▁disgra	-2648
▁♪	-2649
▁glor	-2650
▁raise	-2651
ification	-2652
that	-2653
▁heav	-2654
▁Except	-2655
▁remembrance	-2656
eath	-2657
ately	-2658
▁prayers	-2659
▁recited	-2660
fo	-2661
▁wanted	-2662
oriz	-2663
▁sil	-2664
▁proble	-2665
forgiving	-2666
▁GN	-2667
▁Ge	-2668
▁assign	-2669
▁memo	-2670
▁blood	-2671
▁evidence	-2672
▁Call	-2673
▁Himself	-2674
▁dispute	-2675
▁admonition	-2676
In	-2677
hoto	-2678
▁int	-2679
ardon	-2680
▁haply	-2681
▁names	-2682
▁enemies	-2683
ady	-2684
▁editor	-2685
▁cou	-2686
▁ready	-2687
▁deleted	-2688
▁orphan	-2689
▁revelation	-2690
▁Exalted	-2691
▁Type	-2692
▁Group	-2693
▁understanding	-2694
ero	-2695
ries	-2696
▁led	-2697
brahim	-2698
▁humili	-2699
”;	-2700
ott	-2701
uff	-2702
▁pane	-2703
head	-2704
▁URL	-2705
▁Exc	-2706
▁fil	-2707
▁Inter	-2708
▁7	-2709
amed	-2710
iding	-2711
▁House	-2712
▁curse	-2713
▁story	-2714
▁months	-2715
▁language	-2716
oices	-2717
▁Give	-2718
▁abund	-2719
▁recogn	-2720
dy	-2721
por	-2722
▁prin	-2723
▁fabric	-2724
▁changed	-2725
pro	-2726
▁beha	-2727
▁kept	-2728
▁tong	-2729
▁Mercy	-2730
▁beneath	-2731
uous	-2732
▁Make	-2733
ousand	-2734
▁Sw	-2735
▁journey	-2736
gr	-2737
▁Mar	-2738
▁Oft	-2739
abled	-2740
▁Best	-2741
▁space	-2742
gu	-2743
▁doom	-2744
▁taking	-2745
▁seeking	-2746
imum	-2747
▁draw	-2748
ground	-2749
▁fucking	-2750
Pe	-2751
ee	-2752
▁local	-2753
rateful	-2754
▁Current	-2755
orah	-2756
llent	-2757
tered	-2758
▁await	-2759
▁consider	-2760
une	-2761
▁unseen	-2762
cape	-2763
land	-2764
▁separ	-2765
▁settings	-2766
▁creatures	-2767
▁appointment	-2768
ubs	-2769
ruly	-2770
▁room	-2771
ertainly	-2772
osit	-2773
▁six	-2774
▁Certificate	-2775
ume	-2776
▁carry	-2777
▁email	-2778
▁anci	-2779
▁female	-2780
aby	-2781
itch	-2782
▁dream	-2783
▁function	-2784
▁destination	-2785
▁generations	-2786
▁Sol	-2787
▁Editor	-2788
▁location	-2789
lt	-2790
▁10	-2791
iling	-2792
▁Plugin	-2793
▁Unknown	-2794
▁mid	-2795
GH	-2796
ury	-2797
aters	-2798
onder	-2799
RE	-2800
rite	-2801
▁pack	-2802
hammed	-2803
▁idols	-2804
fect	-2805
co	-2806
kes	-2807
ray	-2808
date	-2809
utes	-2810
▁calls	-2811
▁knoweth	-2812
▁ungrateful	-2813
▁ele	-2814
▁charity	-2815
▁thousand	-2816
▁doesn	-2817
▁sinners	-2818
onse	-2819
▁Lot	-2820
▁Arab	-2821
▁post	-2822
▁clean	-2823
▁helped	-2824
abe	-2825
▁rather	-2826
▁target	-2827
▁Connect	-2828
arm	-2829
▁flo	-2830
▁thir	-2831
fearing	-2832
▁prefer	-2833
▁*	-2834
▁User	-2835
▁victory	-2836
go	-2837
▁idol	-2838
▁application	-2839
nal	-2840
▁Global	-2841
▁wishes	-2842
▁disput	-2843
▁Ibrahim	-2844
gs	-2845
▁19	-2846
alog	-2847
aware	-2848
▁Free	-2849
▁Like	-2850
▁reckoning	-2851
vous	-2852
▁cried	-2853
▁store	-2854
▁med	-2855
▁low	-2856
board	-2857
doing	-2858
athered	-2859
Why	-2860
▁Stop	-2861
▁Choose	-2862
Know	-2863
▁Aware	-2864
▁pious	-2865
▁evening	-2866
▁Settings	-2867
CH	-2868
ey	-2869
lit	-2870
▁Mem	-2871
▁helper	-2872
▁daughters	-2873
▁Any	-2874
▁fra	-2875
cial	-2876
▁steadfast	-2877
OP	-2878
▁vi	-2879
enef	-2880
▁Max	-2881
▁deaf	-2882
▁girl	-2883
▁Garden	-2884
▁result	-2885
▁rej	-2886
▁Thamud	-2887
▁Because	-2888
▁thereby	-2889
der	-2890
▁...	-2891
▁Att	-2892
ency	-2893
▁oaths	-2894
▁kingdom	-2895
▁Way	-2896
▁link	-2897
▁gathered	-2898
els	-2899
▁sleep	-2900
▁property	-2901
yle	-2902
▁shit	-2903
▁marry	-2904
▁table	-2905
▁portion	-2906
▁Trans	-2907
▁Screen	-2908
▁sending	-2909
▁presence	-2910
▁Certainly	-2911
▁righteousness	-2912
To	-2913
ably	-2914
▁strength	-2915
▁ten	-2916
▁Down	-2917
▁deliver	-2918
gger	-2919
▁top	-2920
▁clay	-2921
▁Print	-2922
▁beaut	-2923
▁communic	-2924
ables	-2925
▁Mark	-2926
▁ways	-2927
omatically	-2928
orted	-2929
▁Other	-2930
TP	-2931
igr	-2932
▁Said	-2933
▁fill	-2934
▁Great	-2935
▁Server	-2936
▁sud	-2937
icent	-2938
▁assured	-2939
▁security	-2940
lex	-2941
▁remind	-2942
▁removed	-2943
▁~	-2944
acific	-2945
▁Close	-2946
▁preview	-2947
▁Ne	-2948
▁action	-2949
▁sudden	-2950
ingly	-2951
▁service	-2952
▁working	-2953
?’	-2954
▁stru	-2955
▁burning	-2956
▁entered	-2957
▁fine	-2958
▁chief	-2959
▁trial	-2960
▁Number	-2961
▁Pacific	-2962
▁sincere	-2963
no	-2964
▁Woe	-2965
▁wrath	-2966
▁whereas	-2967
St	-2968
▁abs	-2969
yond	-2970
▁sche	-2971
lier	-2972
▁standing	-2973
mor	-2974
▁ID	-2975
They	-2976
rees	-2977
▁Ever	-2978
gn	-2979
rim	-2980
like	-2981
▁Over	-2982
▁sick	-2983
ruction	-2984
▁Inform	-2985
IT	-2986
▁body	-2987
▁mock	-2988
▁previous	-2989
airs	-2990
omon	-2991
etwork	-2992
▁filter	-2993
▁charact	-2994
rap	-2995
▁loves	-2996
eneficent	-2997
val	-2998
▁safe	-2999
otheism	-3000
▁offline	-3001
erve	-3002
▁Run	-3003
▁Wait	-3004
▁excellent	-3005
any	-3006
upon	-3007
▁Help	-3008
▁tried	-3009
▁column	-3010
▁warned	-3011
▁session	-3012
Al	-3013
your	-3014
▁written	-3015
▁pleasure	-3016
▁polytheists	-3017
arge	-3018
ites	-3019
▁Enc	-3020
ename	-3021
▁Date	-3022
▁drowned	-3023
▁pleases	-3024
hie	-3025
▁mom	-3026
▁viol	-3027
▁belied	-3028
▁content	-3029
▁reflect	-3030
▁disgrace	-3031
▁cap	-3032
▁guy	-3033
enter	-3034
▁hearing	-3035
itional	-3036
▁beyond	-3037
▁Options	-3038
▁ordained	-3039
▁sufficient	-3040
ags	-3041
▁World	-3042
▁process	-3043
▁exec	-3044
▁below	-3045
▁teach	-3046
version	-3047
merciful	-3048
▁produce	-3049
▁everyone	-3050
▁Monotheism	-3051
▁Min	-3052
▁woe	-3053
ality	-3054
lling	-3055
othing	-3056
▁contains	-3057
orm	-3058
▁decreed	-3059
▁options	-3060
▁transgressors	-3061
▁Ha	-3062
wered	-3063
▁invoke	-3064
▁code	-3065
inal	-3066
▁short	-3067
▁device	-3068
▁getting	-3069
▁guardian	-3070
12	-3071
spring	-3072
lasting	-3073
▁Fl	-3074
lead	-3075
▁onto	-3076
▁attack	-3077
sec	-3078
iron	-3079
lice	-3080
oser	-3081
▁beside	-3082
▁inside	-3083
▁period	-3084
▁slaves	-3085
▁hardship	-3086
▁King	-3087
▁guys	-3088
aron	-3089
▁Ins	-3090
▁val	-3091
▁former	-3092
▁eng	-3093
▁i	-3094
When	-3095
again	-3096
▁Faith	-3097
▁disob	-3098
▁takes	-3099
▁valid	-3100
/%	-3101
▁Mod	-3102
▁Thank	-3103
▁fulfilled	-3104
As	-3105
▁kid	-3106
IC	-3107
era	-3108
resh	-3109
Peace	-3110
▁seal	-3111
▁alive	-3112
alt	-3113
▁decree	-3114
▁happen	-3115
▁continue	-3116
▁Does	-3117
ribute	-3118
▁favours	-3119
▁proclaim	-3120
▁assuredly	-3121
vey	-3122
▁Ask	-3123
▁Filter	-3124
▁remote	-3125
UN	-3126
uf	-3127
lif	-3128
▁win	-3129
▁begin	-3130
▁neg	-3131
▁sat	-3132
▁lives	-3133
▁effect	-3134
▁Disable	-3135
▁Document	-3136
▁wall	-3137
mar	-3138
▁"%1	-3139
▁Chan	-3140
▁mischi	-3141
▁pardon	-3142
▁Islamic	-3143
▁Password	-3144
▁und	-3145
nment	-3146
▁purp	-3147
▁cance	-3148
▁appear	-3149
▁seeing	-3150
▁corruption	-3151
ases	-3152
though	-3153
▁trying	-3154
▁affairs	-3155
▁worldly	-3156
▁operation	-3157
atab	-3158
▁Sim	-3159
▁rev	-3160
▁pros	-3161
▁calling	-3162
▁follows	-3163
ouble	-3164
▁stray	-3165
▁escape	-3166
▁origin	-3167
▁rebell	-3168
▁retribution	-3169
bl	-3170
yr	-3171
saying	-3172
▁track	-3173
▁script	-3174
▁Account	-3175
ounds	-3176
▁reply	-3177
orizont	-3178
▁problem	-3179
let	-3180
▁required	-3181
acob	-3182
▁lau	-3183
▁Mohammed	-3184
▁contents	-3185
▁Ta	-3186
▁stars	-3187
▁proofs	-3188
▁threat	-3189
▁gain	-3190
ficult	-3191
▁ships	-3192
▁Christians	-3193
▁worshipped	-3194
▁ic	-3195
▁General	-3196
!’	-3197
iers	-3198
▁Web	-3199
▁kinds	-3200
▁response	-3201
ange	-3202
▁pie	-3203
▁drop	-3204
idered	-3205
▁garden	-3206
sh	-3207
eps	-3208
itle	-3209
quot	-3210
▁Disc	-3211
▁bones	-3212
OME	-3213
▁cove	-3214
▁vain	-3215
▁belief	-3216
irectory	-3217
▁setting	-3218
▁level	-3219
▁needy	-3220
▁quick	-3221
▁sees	-3222
▁audio	-3223
▁answered	-3224
▁happened	-3225
▁considered	-3226
retc	-3227
otion	-3228
▁Truly	-3229
▁Throne	-3230
▁Calendar	-3231
▁Ob	-3232
▁fell	-3233
▁birth	-3234
▁throw	-3235
atabase	-3236
▁beautiful	-3237
▁thereafter	-3238
rief	-3239
▁Whatever	-3240
▁regarding	-3241
ats	-3242
pes	-3243
unt	-3244
▁goes	-3245
▁wilt	-3246
▁Voices	-3247
▁believes	-3248
Wise	-3249
▁Tra	-3250
▁Burn	-3251
▁amongst	-3252
▁'%1	-3253
▁Det	-3254
▁mir	-3255
▁week	-3256
ava	-3257
ache	-3258
worthy	-3259
▁Change	-3260
▁offspring	-3261
▁8	-3262
▁Tw	-3263
▁pi	-3264
▁claim	-3265
▁twain	-3266
▁Arabic	-3267
▁Lic	-3268
▁perhaps	-3269
ule	-3270
▁hist	-3271
▁heavy	-3272
▁breasts	-3273
▁grievous	-3274
▁infide	-3275
▁company	-3276
▁exalted	-3277
ests	-3278
▁End	-3279
ftware	-3280
▁difficult	-3281
▁Bo	-3282
▁IM	-3283
hest	-3284
▁bra	-3285
▁pop	-3286
▁divor	-3287
▁hosts	-3288
▁tasks	-3289
▁causes	-3290
▁License	-3291
▁replace	-3292
▁community	-3293
ny	-3294
amn	-3295
uct	-3296
▁cra	-3297
▁tab	-3298
▁Data	-3299
▁ease	-3300
edience	-3301
▁weight	-3302
rem	-3303
▁20	-3304
▁thr	-3305
▁Holy	-3306
▁died	-3307
▁width	-3308
▁believer	-3309
time	-3310
▁happy	-3311
▁contacts	-3312
▁encompass	-3313
▁Ro	-3314
Then	-3315
▁becom	-3316
▁Source	-3317
face	-3318
ggle	-3319
▁Has	-3320
▁mad	-3321
▁Inst	-3322
▁Keep	-3323
▁spades	-3324
▁judgement	-3325
▁x	-3326
where	-3327
▁Head	-3328
▁inha	-3329
▁dialog	-3330
▁respons	-3331
▁mischief	-3332
▁deed	-3333
▁ascribe	-3334
▁business	-3335
▁signature	-3336
who	-3337
▁black	-3338
▁mouth	-3339
▁surre	-3340
▁wonder	-3341
ildo	-3342
side	-3343
riage	-3344
▁Aaron	-3345
▁evildo	-3346
▁turning	-3347
hall	-3348
ternal	-3349
omet	-3350
undred	-3351
▁sacri	-3352
ibility	-3353
▁manner	-3354
▁talking	-3355
▁selection	-3356
▁(*	-3357
▁Dav	-3358
▁fault	-3359
▁young	-3360
▁strive	-3361
ni	-3362
eft	-3363
uted	-3364
▁Ext	-3365
eness	-3366
▁diam	-3367
itable	-3368
▁invalid	-3369
▁perfect	-3370
▁started	-3371
mark	-3372
▁waste	-3373
▁enjoyment	-3374
osque	-3375
▁five	-3376
▁press	-3377
▁Praise	-3378
▁values	-3379
▁whenever	-3380
▁clearly	-3381
▁companions	-3382
LA	-3383
▁12	-3384
▁wage	-3385
▁Thy	-3386
ottom	-3387
▁Whom	-3388
▁proper	-3389
▁fighting	-3390
reak	-3391
▁Exchange	-3392
▁Dad	-3393
aches	-3394
▁click	-3395
▁convey	-3396
ples	-3397
▁gotta	-3398
▁giving	-3399
▁unaware	-3400
tr	-3401
ium	-3402
▁allow	-3403
ression	-3404
▁Behold	-3405
▁private	-3406
eeds	-3407
ross	-3408
▁actor	-3409
▁unbelie	-3410
law	-3411
ifies	-3412
▁doth	-3413
▁split	-3414
▁hundred	-3415
▁approach	-3416
gard	-3417
oura	-3418
▁aside	-3419
perties	-3420
ryption	-3421
▁purify	-3422
▁Solomon	-3423
hot	-3424
off	-3425
aper	-3426
▁swe	-3427
▁repe	-3428
▁depart	-3429
▁protector	-3430
▁configuration	-3431
RO	-3432
aff	-3433
ofs	-3434
uss	-3435
osing	-3436
▁male	-3437
▁Information	-3438
▁Har	-3439
▁eye	-3440
▁capt	-3441
▁eight	-3442
justice	-3443
dle	-3444
oted	-3445
▁birds	-3446
▁domin	-3447
▁white	-3448
▁correct	-3449
ID	-3450
uc	-3451
▁Mak	-3452
▁custom	-3453
▁fought	-3454
▁ignorant	-3455
▁Ret	-3456
brary	-3457
▁fort	-3458
▁favors	-3459
▁diamonds	-3460
▁greatest	-3461
▁questioned	-3462
Did	-3463
ubl	-3464
roll	-3465
▁Red	-3466
▁lose	-3467
▁After	-3468
▁recip	-3469
Lord	-3470
over	-3471
▁Pres	-3472
▁Never	-3473
▁bondmen	-3474
▁Beneficent	-3475
cul	-3476
ina	-3477
uta	-3478
▁“%	-3479
path	-3480
▁Isa	-3481
azing	-3482
umbers	-3483
▁pract	-3484
▁ground	-3485
▁remained	-3486
aze	-3487
▁leg	-3488
▁Size	-3489
▁fur	-3490
▁fixed	-3491
ferences	-3492
▁glorify	-3493
▁occurred	-3494
Go	-3495
▁]	-3496
they	-3497
▁sli	-3498
▁dece	-3499
▁Judge	-3500
▁Shall	-3501
▁merciful	-3502
oked	-3503
ounce	-3504
▁Miss	-3505
▁moving	-3506
▁#	-3507
lly	-3508
▁gold	-3509
atives	-3510
▁battle	-3511
▁sinful	-3512
fficient	-3513
▁wherever	-3514
▁evidences	-3515
▁injustice	-3516
▁9	-3517
ouch	-3518
this	-3519
▁slave	-3520
▁prosper	-3521
▁subjected	-3522
▁successful	-3523
sequ	-3524
▁ste	-3525
asero	-3526
pected	-3527
porary	-3528
▁jinns	-3529
▁sister	-3530
▁history	-3531
▁strengthen	-3532
ics	-3533
mat	-3534
▁ide	-3535
ajest	-3536
▁limits	-3537
▁stayed	-3538
▁marriage	-3539
)]	-3540
po	-3541
ding	-3542
sued	-3543
▁Act	-3544
▁Exp	-3545
quest	-3546
rings	-3547
▁liar	-3548
▁Light	-3549
▁guess	-3550
▁lived	-3551
▁entire	-3552
AS	-3553
▁Sir	-3554
iting	-3555
▁Game	-3556
▁self	-3557
▁avoid	-3558
retched	-3559
▁bestow	-3560
▁inspired	-3561
acy	-3562
▁Anj	-3563
▁Sam	-3564
plate	-3565
▁Play	-3566
▁activ	-3567
▁hours	-3568
▁similar	-3569
▁distress	-3570
▁Alex	-3571
ection	-3572
▁(_	-3573
iver	-3574
▁Car	-3575
▁Forg	-3576
▁Jacob	-3577
▁purpose	-3578
▁Configure	-3579
▁%1.	-3580
▁breat	-3581
▁items	-3582
▁Custom	-3583
▁profit	-3584
▁stream	-3585
IM	-3586
urs	-3587
▁Ya	-3588
▁Sor	-3589
▁lad	-3590
▁wise	-3591
▁Email	-3592
Prophet	-3593
▁double	-3594
▁judgment	-3595
▁followers	-3596
▁TO	-3597
▁Ant	-3598
▁sum	-3599
▁Left	-3600
▁glory	-3601
▁regular	-3602
ama	-3603
▁LD	-3604
▁Font	-3605
▁cursed	-3606
▁intend	-3607
▁country	-3608
-8	-3609
amet	-3610
▁van	-3611
▁"%1"	-3612
▁slay	-3613
▁public	-3614
▁touched	-3615
▁wherewith	-3616
▁communications	-3617
coming	-3618
▁angel	-3619
▁committed	-3620
▁companion	-3621
iti	-3622
▁evildoers	-3623
▁door	-3624
▁asking	-3625
▁Messages	-3626
▁Key	-3627
▁Vers	-3628
▁oblig	-3629
OT	-3630
000	-3631
▁liken	-3632
▁Off	-3633
▁baby	-3634
▁lord	-3635
▁lying	-3636
▁matters	-3637
▁dwelling	-3638
▁currently	-3639
▁idolaters	-3640
AL	-3641
▁Tab	-3642
▁Full	-3643
▁HTML	-3644
▁quit	-3645
▁clouds	-3646
▁groups	-3647
▁partic	-3648
▁Hearing	-3649
▁forgiving	-3650
▁recipient	-3651
EN	-3652
tt	-3653
ohn	-3654
▁Ac	-3655
ours	-3656
text	-3657
▁Were	-3658
▁unable	-3659
▁Reminder	-3660
odule	-3661
▁dawn	-3662
▁mine	-3663
▁spent	-3664
▁leaves	-3665
Are	-3666
oub	-3667
lcome	-3668
isters	-3669
▁price	-3670
▁testify	-3671
▁·	-3672
▁deg	-3673
marks	-3674
▁helpers	-3675
▁manager	-3676
▁ourselves	-3677
▁.	-3678
▁large	-3679
▁Anjuta	-3680
▁interp	-3681
▁inhabit	-3682
▁connection	-3683
gy	-3684
ler	-3685
▁pled	-3686
▁sett	-3687
arious	-3688
father	-3689
▁fears	-3690
▁possible	-3691
▁suddenly	-3692
▁completed	-3693
BAR	-3694
cted	-3695
uild	-3696
▁None	-3697
nam	-3698
ped	-3699
pted	-3700
semb	-3701
▁Dra	-3702
▁rid	-3703
antly	-3704
▁Jack	-3705
▁Link	-3706
▁Video	-3707
▁sought	-3708
▁army	-3709
▁gover	-3710
ference	-3711
!”	-3712
▁LDAP	-3713
▁shame	-3714
▁style	-3715
▁prison	-3716
▁allowed	-3717
▁IS	-3718
▁Power	-3719
▁trees	-3720
▁attend	-3721
!'	-3722
▁yes	-3723
▁mothers	-3724
▁likeness	-3725
▁thankful	-3726
ik	-3727
▁Dec	-3728
▁arm	-3729
There	-3730
▁shad	-3731
▁India	-3732
irection	-3733
▁dwellers	-3734
▁Ste	-3735
▁Torah	-3736
▁mirac	-3737
▁unknown	-3738
▁Line	-3739
▁Next	-3740
▁half	-3741
▁fully	-3742
▁becomes	-3743
▁speaking	-3744
▁authentication	-3745
mal	-3746
only	-3747
▁David	-3748
▁worst	-3749
▁Public	-3750
aces	-3751
▁Dev	-3752
ength	-3753
▁Class	-3754
▁needs	-3755
hand	-3756
▁fle	-3757
ances	-3758
▁drag	-3759
▁agree	-3760
▁Oneness	-3761
▁earlier	-3762
orizontal	-3763
▁destruction	-3764
-2	-3765
osa	-3766
▁Comple	-3767
▁Creator	-3768
▁observe	-3769
▁accounts	-3770
▁prophets	-3771
▁clubs	-3772
▁proxy	-3773
▁cometh	-3774
▁realiz	-3775
▁explain	-3776
ET	-3777
ively	-3778
ension	-3779
▁heads	-3780
▁minutes	-3781
▁chose	-3782
▁Almighty	-3783
▁commands	-3784
▁paid	-3785
▁ahead	-3786
▁voice	-3787
▁warnings	-3788
▁Properties	-3789
AM	-3790
itan	-3791
▁hit	-3792
morrow	-3793
▁parts	-3794
▁orphans	-3795
▁ancients	-3796
mn	-3797
▁gar	-3798
pathy	-3799
app	-3800
▁Fr	-3801
ince	-3802
▁War	-3803
▁mort	-3804
▁match	-3805
▁exceed	-3806
▁therewith	-3807
Rem	-3808
▁Thee	-3809
▁travel	-3810
▁Ass	-3811
▁humb	-3812
▁stud	-3813
▁Leave	-3814
▁Place	-3815
▁cities	-3816
▁strike	-3817
▁covered	-3818
▁although	-3819
▁heedless	-3820
▁virtuous	-3821
▁bound	-3822
▁front	-3823
▁Unseen	-3824
▁decided	-3825
iled	-3826
▁keys	-3827
▁string	-3828
▁tomorrow	-3829
lesh	-3830
▁Uni	-3831
▁sense	-3832
▁actions	-3833
▁Ah	-3834
gging	-3835
▁differ	-3836
▁screen	-3837
▁leaders	-3838
oday	-3839
will	-3840
▁Prom	-3841
▁Task	-3842
▁affli	-3843
itation	-3844
▁ago	-3845
▁air	-3846
▁Spec	-3847
▁pict	-3848
▁ident	-3849
US	-3850
asted	-3851
▁Mode	-3852
▁respond	-3853
▁decision	-3854
▁mentioned	-3855
▁relatives	-3856
▁righteously	-3857
Have	-3858
file	-3859
uture	-3860
▁Able	-3861
▁Evil	-3862
▁mill	-3863
▁Categ	-3864
▁Value	-3865
against	-3866
▁assist	-3867
▁testim	-3868
▁nations	-3869
Forgiving	-3870
Add	-3871
▁Isaac	-3872
▁laugh	-3873
▁round	-3874
▁places	-3875
entation	-3876
▁servant	-3877
▁inhabitants	-3878
▁(.	-3879
anna	-3880
enty	-3881
▁Tem	-3882
usion	-3883
▁Follow	-3884
▁police	-3885
▁tongue	-3886
▁specify	-3887
▁Log	-3888
▁map	-3889
idget	-3890
▁named	-3891
▁advice	-3892
▁crimin	-3893
▁Loading	-3894
▁plugins	-3895
▁resurre	-3896
So	-3897
ya	-3898
umm	-3899
reed	-3900
▁bed	-3901
▁road	-3902
▁seconds	-3903
▁—	-3904
▁US	-3905
▁log	-3906
▁chat	-3907
▁root	-3908
▁wont	-3909
▁force	-3910
▁swall	-3911
▁Po	-3912
▁palm	-3913
fathers	-3914
▁Location	-3915
▁Sec	-3916
▁pra	-3917
ically	-3918
▁boiling	-3919
▁upright	-3920
▁Alexander	-3921
zy	-3922
ock	-3923
rove	-3924
verted	-3925
▁Peace	-3926
▁devil	-3927
▁Indian	-3928
▁Spirit	-3929
▁attain	-3930
▁prayed	-3931
▁stones	-3932
▁Nothing	-3933
▁conduct	-3934
▁obedient	-3935
'.	-3936
che	-3937
net	-3938
▁box	-3939
▁env	-3940
▁rul	-3941
▁{0}	-3942
▁consequ	-3943
▁Selected	-3944
▁assigned	-3945
▁suc	-3946
ordin	-3947
▁hate	-3948
▁Mount	-3949
▁flesh	-3950
▁learn	-3951
▁almost	-3952
▁desktop	-3953
▁develop	-3954
▁Download	-3955
medi	-3956
▁sex	-3957
oring	-3958
▁ruin	-3959
ishment	-3960
▁whereof	-3961
▁Whosoever	-3962
UCK	-3963
umer	-3964
ying	-3965
▁Hide	-3966
▁area	-3967
▁mere	-3968
▁Maybe	-3969
ourable	-3970
▁channel	-3971
Se	-3972
▁IN	-3973
▁spo	-3974
write	-3975
▁Guard	-3976
▁vouch	-3977
▁Export	-3978
▁firmly	-3979
▁honour	-3980
▁females	-3981
▁bounties	-3982
▁dominion	-3983
otoc	-3984
reci	-3985
rier	-3986
vest	-3987
▁rich	-3988
▁added	-3989
▁sever	-3990
▁Insert	-3991
▁perman	-3992
▁Judgement	-3993
pens	-3994
▁Two	-3995
▁isn	-3996
▁nine	-3997
▁sake	-3998
screen	-3999
▁piety	-4000
▁staff	-4001
▁encount	-4002
▁springs	-4003
▁Straight	-4004
▁blessing	-4005
▁perceive	-4006
ze	-4007
▁Ayat	-4008
▁photo	-4009
▁neglect	-4010
▁various	-4011
▁visible	-4012
▁punished	-4013
▁preferred	-4014
▁forefathers	-4015
IME	-4016
lies	-4017
▁ang	-4018
▁held	-4019
▁indec	-4020
▁Majest	-4021
▁temporary	-4022
50	-4023
abel	-4024
uded	-4025
▁Deb	-4026
▁THE	-4027
Shall	-4028
amera	-4029
▁grief	-4030
His	-4031
How	-4032
▁gate	-4033
▁sort	-4034
▁Gracious	-4035
▁infidels	-4036
▁patiently	-4037
De	-4038
SL	-4039
▁Unt	-4040
▁web	-4041
ching	-4042
▁idea	-4043
▁Mosque	-4044
▁Brasero	-4045
▁interpret	-4046
hic	-4047
▁Sk	-4048
akes	-4049
cred	-4050
▁laid	-4051
▁sides	-4052
▁trave	-4053
▁Should	-4054
▁awaits	-4055
▁beings	-4056
▁numbers	-4057
▁succeed	-4058
▁Prophets	-4059
▁hereafter	-4060
▁affliction	-4061
Bring	-4062
These	-4063
wards	-4064
▁Sorry	-4065
▁pairs	-4066
▁Worlds	-4067
▁equals	-4068
▁comfort	-4069
▁trouble	-4070
uce	-4071
▁Shu	-4072
▁alms	-4073
▁deep	-4074
▁mist	-4075
▁settled	-4076
10	-4077
iff	-4078
onent	-4079
▁vari	-4080
▁testimony	-4081
ux	-4082
▁Gr	-4083
list	-4084
iders	-4085
▁honor	-4086
▁charge	-4087
▁distin	-4088
▁goodly	-4089
▁successfully	-4090
look	-4091
▁imm	-4092
▁bell	-4093
▁vall	-4094
▁shows	-4095
▁insert	-4096
▁library	-4097
▁whereon	-4098
▁`	-4099
ards	-4100
unto	-4101
▁Eng	-4102
▁Pen	-4103
▁Alif	-4104
▁green	-4105
▁height	-4106
Yes	-4107
you	-4108
lebr	-4109
them	-4110
▁First	-4111
▁vouchs	-4112
▁knowing	-4113
passionate	-4114
▁increased	-4115
▁therefrom	-4116
Fo	-4117
cent	-4118
▁coun	-4119
▁resc	-4120
▁Moosa	-4121
▁alike	-4122
▁class	-4123
▁active	-4124
adi	-4125
Will	-4126
▁che	-4127
▁cir	-4128
pboard	-4129
▁writing	-4130
▁installed	-4131
▁Sm	-4132
▁IMAP	-4133
mitted	-4134
▁gates	-4135
▁moment	-4136
expected	-4137
▁lessons	-4138
▁intercession	-4139
aken	-4140
evil	-4141
▁pag	-4142
▁John	-4143
▁rans	-4144
▁lesson	-4145
▁struck	-4146
▁reading	-4147
ilg	-4148
▁Ca	-4149
▁non	-4150
▁calf	-4151
pelled	-4152
▁withd	-4153
bearing	-4154
▁events	-4155
▁deities	-4156
▁Configuration	-4157
TS	-4158
▁Pri	-4159
▁san	-4160
ganiz	-4161
▁Life	-4162
▁poin	-4163
▁Phone	-4164
▁exact	-4165
▁retrie	-4166
nc	-4167
▁winds	-4168
▁sacrif	-4169
.0	-4170
bes	-4171
oran	-4172
▁menu	-4173
▁wide	-4174
▁entry	-4175
▁phone	-4176
▁chance	-4177
▁showed	-4178
▁animals	-4179
▁rightly	-4180
ctor	-4181
▁whe	-4182
steps	-4183
▁Supp	-4184
▁based	-4185
▁wanna	-4186
▁driven	-4187
▁invent	-4188
▁master	-4189
▁modify	-4190
▁sisters	-4191
▁maintain	-4192
▁GNU	-4193
▁Tom	-4194
venge	-4195
▁twice	-4196
▁download	-4197
leg	-4198
▁La	-4199
gain	-4200
fered	-4201
ishes	-4202
▁heir	-4203
▁imag	-4204
▁Hello	-4205
ulation	-4206
▁expend	-4207
▁output	-4208
▁befalls	-4209
▁married	-4210
▁refused	-4211
VS	-4212
▁$	-4213
iple	-4214
mail	-4215
deeds	-4216
olute	-4217
olved	-4218
▁alarm	-4219
▁dread	-4220
▁bearer	-4221
▁humble	-4222
▁recall	-4223
▁terror	-4224
▁Toolbar	-4225
▁kindness	-4226
lace	-4227
▁Top	-4228
acred	-4229
▁tool	-4230
▁immedi	-4231
▁permanently	-4232
cha	-4233
blis	-4234
order	-4235
usted	-4236
▁team	-4237
▁vill	-4238
▁Bless	-4239
▁threw	-4240
▁despair	-4241
▁dwellings	-4242
▁submitted	-4243
there	-4244
▁cell	-4245
ational	-4246
▁perish	-4247
▁backend	-4248
▁enjoined	-4249
▁thinking	-4250
▁household	-4251
▁possessed	-4252
empt	-4253
lawful	-4254
▁Stand	-4255
Knowing	-4256
▁Attach	-4257
▁filled	-4258
▁details	-4259
▁database	-4260
AD	-4261
henna	-4262
▁clot	-4263
▁Among	-4264
▁third	-4265
▁celebr	-4266
LE	-4267
cher	-4268
rong	-4269
▁beg	-4270
▁Turn	-4271
▁rise	-4272
▁nearer	-4273
▁ransom	-4274
▁restore	-4275
▁Selection	-4276
▁{	-4277
att	-4278
▁SH	-4279
▁Met	-4280
inity	-4281
▁acts	-4282
▁GNOME	-4283
▁devils	-4284
▁multip	-4285
▁Preview	-4286
▁benefits	-4287
▁automatically	-4288
',	-4289
more	-4290
▁cop	-4291
entle	-4292
versity	-4293
▁penalty	-4294
▁interest	-4295
▁footsteps	-4296
▁associates	-4297
▁dad	-4298
▁sweet	-4299
▁whoso	-4300
▁header	-4301
▁mouths	-4302
▁sorrow	-4303
.2	-4304
cket	-4305
uddy	-4306
imate	-4307
▁sold	-4308
▁sacred	-4309
▁worthy	-4310
▁enabled	-4311
▁produced	-4312
▁dog	-4313
▁publ	-4314
▁achie	-4315
▁speed	-4316
▁invest	-4317
▁further	-4318
▁existing	-4319
▁vouchsaf	-4320
▁sacrifice	-4321
▁confirming	-4322
▁sn	-4323
anger	-4324
atory	-4325
ospel	-4326
▁Vert	-4327
▁itself	-4328
▁joined	-4329
▁Desktop	-4330
▁Load	-4331
▁afore	-4332
▁theme	-4333
ossible	-4334
▁preced	-4335
▁afflicted	-4336
Ver	-4337
nty	-4338
▁URI	-4339
▁pix	-4340
acher	-4341
ators	-4342
▁nice	-4343
▁bright	-4344
▁fulfil	-4345
▁future	-4346
▁Empathy	-4347
▁rejoice	-4348
▁associated	-4349
▁properties	-4350
ese	-4351
uel	-4352
▁AN	-4353
▁Ma	-4354
oken	-4355
▁Men	-4356
amity	-4357
aries	-4358
▁Prin	-4359
▁wasn	-4360
proofs	-4361
▁worry	-4362
Pharaoh	-4363
▁prevent	-4364
▁mountain	-4365
▁Ear	-4366
▁Gree	-4367
▁Glory	-4368
▁Might	-4369
▁bottom	-4370
▁slaught	-4371
PI	-4372
Th	-4373
▁mur	-4374
acity	-4375
▁fish	-4376
▁extra	-4377
▁Sacred	-4378
▁Program	-4379
▁wrongdoing	-4380
cts	-4381
▁ur	-4382
Open	-4383
▁mut	-4384
orious	-4385
▁insol	-4386
▁Access	-4387
▁Listen	-4388
▁demand	-4389
▁disobeyed	-4390
▁recipients	-4391
▁worshipping	-4392
-1	-4393
aged	-4394
▁Cal	-4395
▁row	-4396
▁seize	-4397
▁desert	-4398
▁Believe	-4399
▁Manager	-4400
▁toolbar	-4401
▁Hi	-4402
▁ch	-4403
▁acqu	-4404
▁bounds	-4405
▁carried	-4406
▁parable	-4407
▁persons	-4408
▁Contacts	-4409
▁description	-4410
MS	-4411
nch	-4412
▁began	-4413
▁slain	-4414
▁swift	-4415
ository	-4416
▁wished	-4417
▁goodness	-4418
▁arguments	-4419
▁character	-4420
▁displayed	-4421
02	-4422
UR	-4423
usy	-4424
▁Blo	-4425
people	-4426
▁accom	-4427
▁invented	-4428
▁attribute	-4429
▁forgotten	-4430
▁rebellious	-4431
▁descendants	-4432
zz	-4433
dis	-4434
▁Te	-4435
umph	-4436
▁treas	-4437
Abraham	-4438
▁decide	-4439
▁defend	-4440
▁minute	-4441
remember	-4442
▁wherefore	-4443
▁disobedient	-4444
lin	-4445
▁POP	-4446
▁habit	-4447
▁towns	-4448
▁length	-4449
▁barrier	-4450
▁unjustly	-4451
▁recompensed	-4452
pha	-4453
▁op	-4454
alat	-4455
tingu	-4456
▁Brow	-4457
▁dise	-4458
atches	-4459
▁Books	-4460
▁Bount	-4461
▁super	-4462
▁feared	-4463
▁Gehenna	-4464
▁windows	-4465
▁daughter	-4466
▁gracious	-4467
▁rewarded	-4468
▁ignorance	-4469
uk	-4470
ole	-4471
Your	-4472
rehe	-4473
what	-4474
▁Tar	-4475
▁rot	-4476
▁Hand	-4477
▁scho	-4478
▁worse	-4479
▁parties	-4480
▁determined	-4481
▁vouchsafed	-4482
But	-4483
came	-4484
▁"{0}	-4485
▁chiefs	-4486
▁thread	-4487
▁triumph	-4488
OW	-4489
een	-4490
mun	-4491
▁WH	-4492
▁Bad	-4493
▁bug	-4494
▁hig	-4495
Enter	-4496
inger	-4497
▁Char	-4498
▁Rest	-4499
▁pull	-4500
▁Until	-4501
▁leads	-4502
▁wombs	-4503
▁divided	-4504
▁prescribed	-4505
IGH	-4506
▁2:	-4507
▁ST	-4508
▁Sa	-4509
▁Fuck	-4510
▁blown	-4511
▁wander	-4512
sc	-4513
gen	-4514
oud	-4515
▁CVS	-4516
▁Lam	-4517
▁Put	-4518
▁sed	-4519
▁born	-4520
▁Koran	-4521
▁vision	-4522
▁Protect	-4523
▁Shaitan	-4524
▁Previous	-4525
▁unlawful	-4526
ifications	-4527
▁humiliating	-4528
▁Compassionate	-4529
tty	-4530
▁ON	-4531
▁fat	-4532
ugger	-4533
▁late	-4534
▁sell	-4535
▁fellow	-4536
▁missing	-4537
▁Each	-4538
▁succ	-4539
▁terms	-4540
missions	-4541
▁station	-4542
▁interpretation	-4543
ggest	-4544
▁icon	-4545
▁prop	-4546
▁ride	-4547
Verily	-4548
isions	-4549
▁About	-4550
▁noble	-4551
▁ranks	-4552
▁Author	-4553
▁building	-4554
▁abundance	-4555
▁attachment	-4556
whi	-4557
▁bal	-4558
▁fate	-4559
▁Cance	-4560
▁looks	-4561
▁System	-4562
▁However	-4563
▁declare	-4564
▁differed	-4565
▁powerful	-4566
▁separate	-4567
▁ain	-4568
▁pol	-4569
erson	-4570
▁Read	-4571
▁Serv	-4572
▁cool	-4573
▁hair	-4574
▁Count	-4575
▁input	-4576
▁maybe	-4577
▁leaving	-4578
▁network	-4579
▁telling	-4580
OM	-4581
cus	-4582
▁Mid	-4583
▁dig	-4584
▁blog	-4585
itions	-4586
ources	-4587
▁deity	-4588
▁graves	-4589
▁spirit	-4590
▁asunder	-4591
▁Guardian	-4592
▁suffering	-4593
▁Connection	-4594
isf	-4595
aced	-4596
also	-4597
▁ban	-4598
ioned	-4599
orter	-4600
umpet	-4601
▁Hold	-4602
▁devi	-4603
ndered	-4604
▁Always	-4605
▁secretly	-4606
isco	-4607
▁throne	-4608
▁partner	-4609
▁exchange	-4610
bb	-4611
apan	-4612
▁Was	-4613
▁nar	-4614
▁disk	-4615
▁stra	-4616
▁grain	-4617
▁Toggle	-4618
▁desist	-4619
▁spring	-4620
▁valley	-4621
▁delight	-4622
▁package	-4623
rec	-4624
▁sup	-4625
▁tot	-4626
▁wee	-4627
aling	-4628
aming	-4629
▁True	-4630
▁curs	-4631
▁flee	-4632
▁fors	-4633
▁step	-4634
▁ridic	-4635
▁government	-4636
OS	-4637
▁>	-4638
▁Di	-4639
▁Id	-4640
▁Mag	-4641
▁Rot	-4642
▁max	-4643
▁Auto	-4644
▁Main	-4645
lation	-4646
▁delay	-4647
▁averse	-4648
▁headers	-4649
▁mailbox	-4650
▁mislead	-4651
▁overcome	-4652
▁relations	-4653
1}	-4654
Pre	-4655
lia	-4656
▁Own	-4657
▁cup	-4658
▁fet	-4659
anced	-4660
neath	-4661
▁nigh	-4662
ilgrim	-4663
otocol	-4664
agement	-4665
▁protection	-4666
▁Unbelievers	-4667
rat	-4668
rik	-4669
▁luck	-4670
others	-4671
attered	-4672
▁longer	-4673
▁ordered	-4674
85	-4675
aly	-4676
▁squ	-4677
▁busy	-4678
ocation	-4679
.).	-4680
ELL	-4681
▁bid	-4682
▁mil	-4683
Surely	-4684
▁Bring	-4685
▁Event	-4686
▁early	-4687
ots	-4688
ths	-4689
clus	-4690
pter	-4691
those	-4692
nchron	-4693
▁pages	-4694
▁print	-4695
▁criminals	-4696
()	-4697
ja	-4698
▁Dr	-4699
That	-4700
atur	-4701
gypt	-4702
▁Mic	-4703
▁Nuh	-4704
▁lower	-4705
▁divorce	-4706
▁flowing	-4707
▁Bar	-4708
▁upd	-4709
mates	-4710
▁Part	-4711
▁dumb	-4712
▁wine	-4713
▁Today	-4714
▁built	-4715
▁looked	-4716
▁special	-4717
▁streams	-4718
▁submission	-4719
old	-4720
▁OK	-4721
cast	-4722
supp	-4723
ignty	-4724
using	-4725
▁West	-4726
▁Origin	-4727
▁altern	-4728
▁paramet	-4729
▁direction	-4730
▁Cor	-4731
thren	-4732
▁blow	-4733
▁gets	-4734
▁shir	-4735
▁final	-4736
▁usage	-4737
▁visit	-4738
▁Before	-4739
▁Everlasting	-4740
▁disbelieving	-4741
ris	-4742
vin	-4743
▁El	-4744
back	-4745
ithm	-4746
mend	-4747
usuf	-4748
andon	-4749
▁Port	-4750
ainted	-4751
▁across	-4752
▁openly	-4753
▁pledge	-4754
▁creates	-4755
▁encrypt	-4756
▁loading	-4757
▁Highlight	-4758
▁underneath	-4759
sue	-4760
▁`%	-4761
ming	-4762
olog	-4763
▁East	-4764
▁Egypt	-4765
▁Switch	-4766
▁fulfill	-4767
▁brethren	-4768
▁striving	-4769
▁clipboard	-4770
polytheists	-4771
"?	-4772
▁<	-4773
elt	-4774
iring	-4775
▁rank	-4776
▁seed	-4777
▁Found	-4778
▁Iblis	-4779
▁broke	-4780
▁doers	-4781
▁haven	-4782
▁ornam	-4783
▁tribe	-4784
hearing	-4785
vereignty	-4786
▁recognize	-4787
▁permissions	-4788
▁responsible	-4789
▁resurrection	-4790
.1	-4791
Com	-4792
▁Writ	-4793
▁fool	-4794
▁design	-4795
▁necess	-4796
▁satisf	-4797
▁misfort	-4798
▁resurrected	-4799
▁fit	-4800
▁hor	-4801
▁ing	-4802
▁mus	-4803
▁wed	-4804
hotos	-4805
▁debt	-4806
▁entr	-4807
▁sets	-4808
▁Status	-4809
▁obeyed	-4810
ironment	-4811
▁swallow	-4812
New	-4813
▁Sab	-4814
▁inn	-4815
▁kin	-4816
oding	-4817
riend	-4818
▁rock	-4819
▁pride	-4820
▁online	-4821
▁Forward	-4822
▁outside	-4823
▁forgives	-4824
'?	-4825
wit	-4826
▁Cle	-4827
erved	-4828
▁prohi	-4829
▁saving	-4830
▁abandon	-4831
▁deniers	-4832
unishment	-4833
▁encounter	-4834
loy	-4835
Show	-4836
reet	-4837
▁joy	-4838
aunch	-4839
▁careful	-4840
▁wretched	-4841
;-	-4842
▁flag	-4843
leting	-4844
▁Grace	-4845
▁Night	-4846
▁initi	-4847
▁likes	-4848
▁Update	-4849
▁mortal	-4850
▁Burning	-4851
▁disease	-4852
▁inmates	-4853
▁reminded	-4854
60	-4855
ded	-4856
▁Div	-4857
▁Mal	-4858
▁bind	-4859
▁gift	-4860
licate	-4861
▁adorn	-4862
▁argue	-4863
▁cease	-4864
▁exper	-4865
▁couldn	-4866
▁reform	-4867
▁wouldn	-4868
▁bellies	-4869
▁Whenever	-4870
▁unbelief	-4871
▁withhold	-4872
▁scattered	-4873
,'	-4874
Mus	-4875
ram	-4876
xic	-4877
Come	-4878
▁gun	-4879
▁Japan	-4880
▁Table	-4881
▁shade	-4882
ailable	-4883
▁Header	-4884
▁broken	-4885
▁persist	-4886
▁Authentication	-4887
amb	-4888
but	-4889
iet	-4890
olve	-4891
▁Ber	-4892
▁Mim	-4893
▁aid	-4894
▁vol	-4895
▁wear	-4896
▁Const	-4897
▁silver	-4898
▁Windows	-4899
▁deceive	-4900
▁tongues	-4901
▁surrender	-4902
▁background	-4903
ANT	-4904
RUN	-4905
urat	-4906
▁City	-4907
▁Draw	-4908
▁Zoom	-4909
▁junk	-4910
▁comput	-4911
▁fallen	-4912
▁humans	-4913
▁settle	-4914
▁degrees	-4915
▁software	-4916
Dis	-4917
nipp	-4918
Satan	-4919
▁crit	-4920
▁hire	-4921
▁beware	-4922
▁Penalty	-4923
20	-4924
LI	-4925
kah	-4926
▁Und	-4927
▁hot	-4928
icing	-4929
▁anger	-4930
▁cards	-4931
▁several	-4932
▁strayed	-4933
▁guardians	-4934
aint	-4935
otent	-4936
▁'{0}	-4937
▁lear	-4938
▁shel	-4939
▁midst	-4940
▁pagans	-4941
▁lasting	-4942
▁offering	-4943
dd	-4944
▁%3	-4945
akat	-4946
dens	-4947
inese	-4948
▁boys	-4949
▁quar	-4950
▁Photo	-4951
▁proceed	-4952
▁supreme	-4953
▁tarried	-4954
▁misdeeds	-4955
▁standard	-4956
▁Wherefore	-4957
▁important	-4958
By	-4959
ns	-4960
lid	-4961
Copy	-4962
even	-4963
ster	-4964
▁Aust	-4965
▁Mult	-4966
▁Stay	-4967
▁ward	-4968
▁South	-4969
▁shirt	-4970
▁Object	-4971
▁Neither	-4972
▁Witness	-4973
rant	-4974
▁Med	-4975
▁Ram	-4976
▁Perm	-4977
▁Build	-4978
▁frust	-4979
▁relie	-4980
▁skins	-4981
iration	-4982
▁barren	-4983
▁actually	-4984
▁disputed	-4985
sufficient	-4986
▁misfortune	-4987
IR	-4988
▁More	-4989
ishing	-4990
▁lines	-4991
▁memory	-4992
▁rising	-4993
▁sealed	-4994
▁extreme	-4995
▁abundant	-4996
▁calamity	-4997
▁magician	-4998
▁provides	-4999
adu	-5000
due	-5001
lve	-5002
ulate	-5003
▁caut	-5004
▁prec	-5005
▁accord	-5006
▁detail	-5007
▁native	-5008
▁restri	-5009
▁creature	-5010
AB	-5011
pi	-5012
▁Ra	-5013
▁Reg	-5014
▁typ	-5015
Taste	-5016
asing	-5017
▁lock	-5018
▁sens	-5019
▁Reply	-5020
▁fonts	-5021
▁perse	-5022
▁Taurat	-5023
▁corrupt	-5024
▁praises	-5025
▁thunder	-5026
GP	-5027
Had	-5028
alih	-5029
inue	-5030
long	-5031
ority	-5032
▁Audio	-5033
▁Rather	-5034
▁amount	-5035
▁assemb	-5036
ilgrimage	-5037
▁godfearing	-5038
▁immediately	-5039
▁Phi	-5040
▁Vis	-5041
bited	-5042
ening	-5043
▁Fear	-5044
▁summ	-5045
▁yeah	-5046
idence	-5047
▁offic	-5048
▁spoken	-5049
▁counsel	-5050
▁oppress	-5051
▁supposed	-5052
▁Directory	-5053
▁possessions	-5054
hod	-5055
xis	-5056
ping	-5057
▁Int	-5058
▁inj	-5059
ected	-5060
aching	-5061
▁Empty	-5062
▁Tasks	-5063
▁crazy	-5064
▁parse	-5065
igrated	-5066
▁desired	-5067
▁restored	-5068
▁condition	-5069
Save	-5070
▁Dan	-5071
going	-5072
▁Owner	-5073
▁White	-5074
▁bliss	-5075
▁rename	-5076
▁profile	-5077
▁obedience	-5078
▁characters	-5079
AY	-5080
Rep	-5081
lip	-5082
▁100	-5083
▁Bug	-5084
▁dry	-5085
aking	-5086
areth	-5087
itute	-5088
ushed	-5089
▁Sing	-5090
▁prob	-5091
▁sole	-5092
ummary	-5093
▁Yusuf	-5094
▁regret	-5095
▁convers	-5096
▁killing	-5097
▁Horizontal	-5098
▁completely	-5099
EE	-5100
uj	-5101
wa	-5102
ral	-5103
▁15	-5104
ighb	-5105
▁Fin	-5106
▁unf	-5107
Where	-5108
▁Item	-5109
▁seas	-5110
▁whis	-5111
▁media	-5112
▁Format	-5113
▁Muslim	-5114
▁endure	-5115
▁pieces	-5116
▁refuse	-5117
▁couches	-5118
▁playing	-5119
▁Universe	-5120
▁cautious	-5121
▁writable	-5122
":	-5123
Ex	-5124
▁Uh	-5125
▁saf	-5126
▁HTTP	-5127
▁penit	-5128
▁persec	-5129
▁summon	-5130
▁finished	-5131
▁magicians	-5132
▁questions	-5133
Im	-5134
,000	-5135
▁Ref	-5136
oples	-5137
▁Andy	-5138
▁subs	-5139
rehend	-5140
▁Local	-5141
▁Trust	-5142
▁index	-5143
▁polit	-5144
▁subst	-5145
▁trash	-5146
▁ascend	-5147
▁closed	-5148
▁loaded	-5149
▁pretty	-5150
▁Install	-5151
▁burdens	-5152
▁compass	-5153
▁objects	-5154
lications	-5155
▁overtook	-5156
EA	-5157
.),	-5158
hma	-5159
▁*.	-5160
oman	-5161
sing	-5162
▁tax	-5163
inite	-5164
▁Godw	-5165
▁cour	-5166
▁rely	-5167
▁cache	-5168
▁sanct	-5169
▁suggest	-5170
▁Vertical	-5171
▁township	-5172
▁watching	-5173
▁Application	-5174
ares	-5175
lish	-5176
▁buy	-5177
▁fly	-5178
▁ton	-5179
▁ador	-5180
▁Level	-5181
▁goods	-5182
▁necks	-5183
▁sorce	-5184
▁common	-5185
▁invite	-5186
▁realize	-5187
▁aforetime	-5188
▁prevented	-5189
ba	-5190
zing	-5191
▁Mom	-5192
▁zoom	-5193
ercent	-5194
terday	-5195
▁indic	-5196
▁shoot	-5197
▁title	-5198
▁Subject	-5199
▁payment	-5200
▁secrets	-5201
▁interced	-5202
▁miracles	-5203
.,	-5204
Re	-5205
key	-5206
▁Av	-5207
ills	-5208
isher	-5209
▁Junk	-5210
▁Memo	-5211
▁Cisco	-5212
▁exalt	-5213
▁authentic	-5214
▁operations	-5215
▁similitude	-5216
▁Description	-5217
bum	-5218
alks	-5219
king	-5220
▁Bri	-5221
▁Post	-5222
▁pred	-5223
▁cloud	-5224
▁minds	-5225
▁shalt	-5226
▁anyway	-5227
▁calcul	-5228
▁excess	-5229
▁informed	-5230
PS	-5231
iah	-5232
pet	-5233
▁30	-5234
cery	-5235
fire	-5236
▁Try	-5237
▁Tur	-5238
▁cost	-5239
▁heat	-5240
▁hears	-5241
▁mouse	-5242
▁piece	-5243
▁popup	-5244
▁uncle	-5245
▁behalf	-5246
▁excuse	-5247
▁hatred	-5248
▁layout	-5249
▁mocked	-5250
▁orders	-5251
▁safety	-5252
▁treaty	-5253
▁particip	-5254
OL	-5255
VE	-5256
la	-5257
859	-5258
aib	-5259
▁uh	-5260
▁Her	-5261
▁fan	-5262
▁rejo	-5263
mankind	-5264
▁Column	-5265
▁flight	-5266
▁riches	-5267
▁Copying	-5268
▁conject	-5269
▁picture	-5270
▁indecency	-5271
▁Preferences	-5272
▁everlasting	-5273
iqu	-5274
▁CH	-5275
avan	-5276
book	-5277
▁San	-5278
▁Soon	-5279
▁Zali	-5280
▁shut	-5281
▁crime	-5282
▁Saving	-5283
▁allies	-5284
▁Chinese	-5285
▁Perhaps	-5286
ley	-5287
ttp	-5288
▁Icon	-5289
▁Java	-5290
▁revi	-5291
▁star	-5292
rained	-5293
▁camera	-5294
▁choice	-5295
▁spouses	-5296
▁utterly	-5297
▁notification	-5298
CC	-5299
▁Eat	-5300
arest	-5301
itial	-5302
▁Many	-5303
▁exit	-5304
▁saith	-5305
▁Maryam	-5306
▁Weather	-5307
▁Zalimun	-5308
▁ancient	-5309
▁purified	-5310
pal	-5311
▁snow	-5312
estern	-5313
▁Salih	-5314
▁aright	-5315
▁effort	-5316
ometimes	-5317
▁peoples	-5318
▁serious	-5319
▁Encryption	-5320
ipe	-5321
hmael	-5322
▁lust	-5323
▁drawn	-5324
▁fresh	-5325
▁stone	-5326
▁cursor	-5327
▁school	-5328
▁worked	-5329
▁English	-5330
▁President	-5331
▁Background	-5332
▁Automatically	-5333
,’	-5334
1)	-5335
UGH	-5336
org	-5337
▁Sar	-5338
▁der	-5339
▁slew	-5340
▁trad	-5341
Knower	-5342
▁Under	-5343
▁While	-5344
▁intell	-5345
▁marked	-5346
▁sitting	-5347
▁original	-5348
▁sorcerer	-5349
On	-5350
oug	-5351
qun	-5352
▁Py	-5353
gged	-5354
ivers	-5355
▁emer	-5356
▁hosp	-5357
▁jack	-5358
▁pour	-5359
▁vert	-5360
ounced	-5361
▁Cause	-5362
▁Width	-5363
▁avert	-5364
▁grand	-5365
▁quite	-5366
▁advance	-5367
▁excuses	-5368
▁sorcery	-5369
CT	-5370
cies	-5371
▁XML	-5372
▁Hast	-5373
▁Sort	-5374
▁seems	-5375
▁Hearer	-5376
▁armies	-5377
▁Maximum	-5378
▁million	-5379
▁Everything	-5380
istr	-5381
▁nig	-5382
▁sad	-5383
▁sal	-5384
▁flags	-5385
▁worth	-5386
▁Gospel	-5387
▁condem	-5388
▁famili	-5389
▁gentle	-5390
▁office	-5391
▁scheme	-5392
▁strait	-5393
▁guideth	-5394
supported	-5395
▁devotion	-5396
▁promises	-5397
▁honourable	-5398
▁disbelieves	-5399
OCK	-5400
gor	-5401
down	-5402
imal	-5403
▁Tor	-5404
▁nay	-5405
▁uns	-5406
erred	-5407
▁books	-5408
▁sport	-5409
▁Network	-5410
▁Specify	-5411
▁Welcome	-5412
▁Category	-5413
▁distance	-5414
▁harmdoers	-5415
▁president	-5416
▁=	-5417
cil	-5418
aled	-5419
rage	-5420
rive	-5421
▁SSL	-5422
▁Cent	-5423
▁Note	-5424
▁bank	-5425
▁exerc	-5426
▁handle	-5427
▁photos	-5428
▁meaning	-5429
▁garments	-5430
▁certainty	-5431
▁otherwise	-5432
▁commandment	-5433
▁prostrating	-5434
▁disobedience	-5435
SA	-5436
▁Fil	-5437
▁Hon	-5438
▁Sup	-5439
-8859	-5440
acing	-5441
▁Snow	-5442
▁weap	-5443
Mighty	-5444
▁Austra	-5445
▁Master	-5446
▁nights	-5447
▁Blessed	-5448
▁adversity	-5449
▁strengthened	-5450
ods	-5451
▁Lu	-5452
▁Ham	-5453
▁Mer	-5454
▁Vol	-5455
▁awe	-5456
camel	-5457
▁Requ	-5458
▁adop	-5459
▁Prayer	-5460
▁devour	-5461
▁enable	-5462
▁virtue	-5463
▁reaches	-5464
▁adornment	-5465
▁ornaments	-5466
compassionate	-5467
,”	-5468
IL	-5469
API	-5470
Hel	-5471
conf	-5472
▁Lut	-5473
▁huh	-5474
▁Rece	-5475
▁cold	-5476
▁innoc	-5477
▁plead	-5478
▁dreams	-5479
▁neighb	-5480
▁incline	-5481
▁addresses	-5482
▁SC	-5483
▁Fun	-5484
▁bag	-5485
▁fif	-5486
▁Upon	-5487
▁site	-5488
▁scoff	-5489
▁betray	-5490
▁disclose	-5491
▁requited	-5492
▁withdraw	-5493
üh	-5494
ila	-5495
nes	-5496
uls	-5497
▁Alp	-5498
▁Cha	-5499
▁Germ	-5500
▁brow	-5501
▁Height	-5502
▁ruined	-5503
▁Godwary	-5504
▁Therein	-5505
▁balance	-5506
▁1.	-5507
aked	-5508
▁Cut	-5509
▁butt	-5510
before	-5511
cially	-5512
▁disre	-5513
▁satan	-5514
▁arrest	-5515
▁Changes	-5516
▁Summary	-5517
▁achieve	-5518
▁happens	-5519
▁village	-5520
▁retrieve	-5521
▁happiness	-5522
ips	-5523
▁IT	-5524
ogle	-5525
▁lab	-5526
▁pan	-5527
antic	-5528
ppers	-5529
▁Russ	-5530
▁deem	-5531
ushing	-5532
▁Bounty	-5533
▁danger	-5534
▁middle	-5535
▁summary	-5536
directory	-5537
▁surround	-5538
▁bookmarks	-5539
▁generation	-5540
UT	-5541
urt	-5542
GRUN	-5543
ffer	-5544
good	-5545
▁Eli	-5546
istant	-5547
▁expel	-5548
▁Center	-5549
▁arrive	-5550
▁extend	-5551
▁sender	-5552
▁sexual	-5553
▁exactly	-5554
▁exposed	-5555
▁inflict	-5556
▁computer	-5557
▁relative	-5558
▁Thereupon	-5559
++	-5560
cut	-5561
see	-5562
▁Fe	-5563
-200	-5564
card	-5565
▁Sun	-5566
▁Val	-5567
illic	-5568
ührer	-5569
▁cook	-5570
▁iron	-5571
▁Prompt	-5572
▁external	-5573
▁stronger	-5574
▁requested	-5575
▁transgression	-5576
mp	-5577
Now	-5578
Edit	-5579
arms	-5580
ears	-5581
uced	-5582
▁Got	-5583
point	-5584
▁pick	-5585
▁Black	-5586
▁tempt	-5587
▁denies	-5588
▁arrived	-5589
▁resource	-5590
▁treasures	-5591
IP	-5592
itor	-5593
mity	-5594
some	-5595
▁%1:	-5596
▁emp	-5597
▁tag	-5598
bolic	-5599
clude	-5600
ffect	-5601
▁beat	-5602
▁obst	-5603
Script	-5604
▁Earth	-5605
▁Langu	-5606
▁paper	-5607
▁guests	-5608
▁Warning	-5609
▁harvest	-5610
▁admitted	-5611
ED	-5612
)?"	-5613
oon	-5614
ooth	-5615
▁Tag	-5616
pense	-5617
▁rule	-5618
▁Field	-5619
▁bears	-5620
▁expects	-5621
▁pursued	-5622
▁Position	-5623
▁Software	-5624
▁progress	-5625
aps	-5626
▁Env	-5627
▁Wis	-5628
iance	-5629
▁Dist	-5630
▁Pack	-5631
▁Very	-5632
▁rect	-5633
▁falls	-5634
▁often	-5635
▁breast	-5636
▁update	-5637
▁increases	-5638
:00	-5639
low	-5640
mble	-5641
omain	-5642
▁Test	-5643
ounded	-5644
▁moved	-5645
▁shape	-5646
▁stern	-5647
▁burned	-5648
▁colors	-5649
▁likely	-5650
▁signed	-5651
▁devoted	-5652
▁resting	-5653
▁husbands	-5654
▁requests	-5655
▁Protector	-5656
▁discourse	-5657
ISO	-5658
ool	-5659
urg	-5660
rase	-5661
▁cow	-5662
▁kids	-5663
▁Again	-5664
▁laden	-5665
▁links	-5666
▁miser	-5667
▁yield	-5668
▁allows	-5669
▁client	-5670
▁nature	-5671
▁Version	-5672
▁tonight	-5673
▁distingu	-5674
▁celebrate	-5675
2)	-5676
ald	-5677
ene	-5678
gon	-5679
omb	-5680
ppy	-5681
ula	-5682
help	-5683
ival	-5684
▁ant	-5685
▁cru	-5686
▁hun	-5687
angle	-5688
dened	-5689
itive	-5690
▁bran	-5691
▁sail	-5692
▁shot	-5693
▁slot	-5694
vation	-5695
▁prove	-5696
▁justly	-5697
▁widget	-5698
▁mailing	-5699
▁recently	-5700
▁recorded	-5701
▁presented	-5702
▁fabricated	-5703
▁worshipers	-5704
IF	-5705
LS	-5706
ich	-5707
▁14	-5708
▁Ok	-5709
Call	-5710
appe	-5711
▁mer	-5712
▁bird	-5713
▁kins	-5714
▁rehe	-5715
▁veget	-5716
▁Führer	-5717
▁Remote	-5718
▁Verses	-5719
▁Kingdom	-5720
▁rewards	-5721
▁honoured	-5722
▁hospital	-5723
▁probably	-5724
;"	-5725
iga	-5726
rodu	-5727
▁ISO	-5728
istan	-5729
▁base	-5730
▁holy	-5731
▁pron	-5732
▁Break	-5733
▁Trash	-5734
▁issue	-5735
ritable	-5736
yrillic	-5737
▁Output	-5738
▁bitter	-5739
▁needed	-5740
▁obtain	-5741
▁pixels	-5742
ordinate	-5743
▁Missing	-5744
▁Replace	-5745
▁Proclaim	-5746
▁Australia	-5747
hel	-5748
abri	-5749
▁Law	-5750
tedly	-5751
crease	-5752
idance	-5753
▁didst	-5754
▁grave	-5755
▁river	-5756
▁Seeing	-5757
▁driver	-5758
▁loveth	-5759
▁Ishmael	-5760
▁stories	-5761
▁canceled	-5762
▁template	-5763
too	-5764
▁IP	-5765
Mail	-5766
eder	-5767
hift	-5768
ques	-5769
▁Bra	-5770
▁Sin	-5771
▁ble	-5772
heart	-5773
▁Coll	-5774
▁merc	-5775
▁scre	-5776
▁wary	-5777
▁wast	-5778
▁module	-5779
▁played	-5780
oubtedly	-5781
▁denying	-5782
▁requite	-5783
▁sendeth	-5784
▁visited	-5785
▁Debugger	-5786
▁distinct	-5787
▁Subversion	-5788
▁attachments	-5789
30	-5790
Woe	-5791
List	-5792
Noah	-5793
thon	-5794
welve	-5795
▁Cong	-5796
▁Exec	-5797
▁Host	-5798
▁Scan	-5799
▁axis	-5800
▁judges	-5801
▁yellow	-5802
▁Messiah	-5803
▁niggard	-5804
▁slaughter	-5805
CS	-5806
rev	-5807
▁Ark	-5808
▁Cur	-5809
▁DPI	-5810
▁Fit	-5811
▁Ign	-5812
Jesus	-5813
▁dies	-5814
▁felt	-5815
▁http	-5816
formed	-5817
uation	-5818
▁consp	-5819
▁frame	-5820
▁keeps	-5821
▁Compan	-5822
▁giveth	-5823
▁Worship	-5824
▁printer	-5825
▁scatter	-5826
▁disabled	-5827
▁Automatic	-5828
▁existence	-5829
▁frustrate	-5830
▁rebellion	-5831
olf	-5832
onf	-5833
Hell	-5834
KING	-5835
born	-5836
ille	-5837
when	-5838
Alone	-5839
plete	-5840
▁loan	-5841
▁greet	-5842
▁stuff	-5843
▁forged	-5844
▁solemn	-5845
▁Mailbox	-5846
▁proport	-5847
▁expelled	-5848
▁receiving	-5849
▁statement	-5850
▁consequence	-5851
▁inheritance	-5852
II	-5853
▁11	-5854
▁DO	-5855
fell	-5856
hant	-5857
▁Dep	-5858
▁sel	-5859
▁sus	-5860
Salat	-5861
uding	-5862
▁Doug	-5863
▁Pell	-5864
▁Rain	-5865
▁Track	-5866
▁Whoso	-5867
▁girls	-5868
▁spoke	-5869
▁exclus	-5870
▁useful	-5871
Remember	-5872
▁abiding	-5873
▁anymore	-5874
▁disregard	-5875
▁highlight	-5876
Tr	-5877
bers	-5878
▁Aye	-5879
▁Hud	-5880
▁Sur	-5881
▁lod	-5882
▁sym	-5883
▁wax	-5884
▁cred	-5885
▁disd	-5886
▁fash	-5887
▁opin	-5888
▁Module	-5889
▁Viewer	-5890
▁expand	-5891
▁hunger	-5892
▁innocent	-5893
▁multiple	-5894
▁suffices	-5895
▁attention	-5896
▁encryption	-5897
Help	-5898
Take	-5899
auty	-5900
illa	-5901
requ	-5902
▁Fra	-5903
Would	-5904
▁Info	-5905
▁thine	-5906
▁weigh	-5907
▁center	-5908
▁enmity	-5909
▁suffice	-5910
▁humility	-5911
▁successors	-5912
▁confirmation	-5913
Un	-5914
hab	-5915
isk	-5916
;{0}	-5917
bath	-5918
mbol	-5919
▁Del	-5920
▁MAN	-5921
▁Face	-5922
▁band	-5923
▁damn	-5924
▁slow	-5925
abriel	-5926
▁range	-5927
▁closer	-5928
▁proved	-5929
▁locally	-5930
▁startup	-5931
▁Checking	-5932
▁Majestic	-5933
▁families	-5934
▁protocol	-5935
▁intercede	-5936
rd	-5937
ww	-5938
elf	-5939
cons	-5940
quer	-5941
▁Mor	-5942
▁mat	-5943
▁sol	-5944
igned	-5945
▁Fran	-5946
▁camp	-5947
▁corn	-5948
▁Watch	-5949
▁blast	-5950
▁etern	-5951
▁Device	-5952
▁animal	-5953
▁owners	-5954
▁render	-5955
▁blazing	-5956
▁holding	-5957
▁generous	-5958
▁applications	-5959
ju	-5960
▁Pa	-5961
▁SM	-5962
arls	-5963
irth	-5964
tion	-5965
▁dim	-5966
▁fuel	-5967
Search	-5968
▁angry	-5969
▁starts	-5970
▁browser	-5971
▁trusted	-5972
▁Internet	-5973
▁greeting	-5974
▁differences	-5975
ye	-5976
Mess	-5977
▁exh	-5978
aired	-5979
ifier	-5980
power	-5981
▁Tool	-5982
▁neck	-5983
▁Fight	-5984
▁numer	-5985
gorithm	-5986
▁Record	-5987
▁Wisdom	-5988
▁points	-5989
▁selves	-5990
▁crooked	-5991
▁humbled	-5992
▁keeping	-5993
▁suppose	-5994
▁exercise	-5995
▁!	-5996
ita	-5997
Send	-5998
▁FUCK	-5999
▁MAPI	-6000
▁Subs	-6001
▁ends	-6002
▁games	-6003
ributed	-6004
▁Reload	-6005
▁beasts	-6006
▁Details	-6007
▁compens	-6008
▁fearing	-6009
▁quality	-6010
▁fabricate	-6011
▁protectors	-6012
▁prostration	-6013
CD	-6014
je	-6015
ana	-6016
ees	-6017
oul	-6018
avig	-6019
rabs	-6020
▁Ent	-6021
▁Fav	-6022
bered	-6023
▁bore	-6024
▁cruc	-6025
▁fount	-6026
▁heirs	-6027
▁shout	-6028
pleased	-6029
▁Accept	-6030
▁beauty	-6031
▁Extract	-6032
▁accepts	-6033
▁retreat	-6034
▁strange	-6035
▁packages	-6036
lah	-6037
oys	-6038
acha	-6039
llen	-6040
reth	-6041
▁Rel	-6042
▁dow	-6043
▁lof	-6044
▁accur	-6045
▁board	-6046
▁males	-6047
plement	-6048
▁execut	-6049
▁Sabbath	-6050
▁obvious	-6051
▁shelter	-6052
▁oppressed	-6053
▁Remembrance	-6054
▁transgressed	-6055
had	-6056
▁17	-6057
▁gen	-6058
asphe	-6059
▁Term	-6060
▁Week	-6061
▁Reset	-6062
▁categ	-6063
▁recon	-6064
ministr	-6065
▁simple	-6066
▁thrown	-6067
together	-6068
▁Permiss	-6069
▁buttons	-6070
▁Everyone	-6071
▁permitted	-6072
▁published	-6073
▁separated	-6074
▁expression	-6075
Mac	-6076
ONE	-6077
▁24	-6078
izes	-6079
ller	-6080
part	-6081
udes	-6082
▁CMS	-6083
▁Lay	-6084
▁bas	-6085
epend	-6086
retch	-6087
▁arms	-6088
▁sequ	-6089
vision	-6090
▁Allow	-6091
▁Label	-6092
▁Three	-6093
▁crash	-6094
▁remem	-6095
▁stood	-6096
ception	-6097
▁Google	-6098
▁repeat	-6099
▁scroll	-6100
▁defined	-6101
▁updated	-6102
▁warners	-6103
▁drinking	-6104
▁expected	-6105
▁personal	-6106
hoo	-6107
▁wh	-6108
true	-6109
▁Ans	-6110
▁bod	-6111
▁kings	-6112
▁query	-6113
▁usury	-6114
▁Couldn	-6115
▁Little	-6116
▁compet	-6117
▁hinder	-6118
▁mutual	-6119
▁verify	-6120
▁Initial	-6121
▁Meeting	-6122
▁quickly	-6123
▁section	-6124
▁Standard	-6125
▁birthday	-6126
▁practice	-6127
▁ridicule	-6128
▁thoughts	-6129
▁Additional	-6130
▁Praiseworthy	-6131
ann	-6132
ior	-6133
ops	-6134
▁Pal	-6135
▁Sal	-6136
▁esc	-6137
▁oce	-6138
Folder	-6139
igured	-6140
▁iniqu	-6141
▁recur	-6142
▁units	-6143
▁advant	-6144
▁befell	-6145
▁chaste	-6146
▁couple	-6147
▁fields	-6148
▁twelve	-6149
ubscribe	-6150
▁closing	-6151
▁deluded	-6152
▁guarded	-6153
▁however	-6154
▁suitable	-6155
▁weakness	-6156
ertificates	-6157
▁prostrated	-6158
▁repository	-6159
▁victorious	-6160
LES	-6161
ota	-6162
▁Ed	-6163
plit	-6164
▁Atl	-6165
▁Code	-6166
▁Sent	-6167
▁cent	-6168
▁comb	-6169
▁crow	-6170
▁lamp	-6171
▁song	-6172
▁dealt	-6173
▁queen	-6174
▁grants	-6175
▁bearing	-6176
▁collect	-6177
▁evident	-6178
▁falling	-6179
▁mindful	-6180
▁welcome	-6181
▁dreadful	-6182
▁starting	-6183
▁necessary	-6184
▁Foundation	-6185
▁afterwards	-6186
▁friendship	-6187
▁management	-6188
▁notifications	-6189
iB	-6190
▁'.	-6191
▁CA	-6192
iced	-6193
vior	-6194
▁Job	-6195
atest	-6196
rived	-6197
▁Shut	-6198
▁Words	-6199
▁crops	-6200
▁holds	-6201
▁plans	-6202
▁Midian	-6203
▁letter	-6204
▁stored	-6205
▁tested	-6206
▁fortune	-6207
▁Cyrillic	-6208
▁overtake	-6209
▁Assistant	-6210
▁niggardly	-6211
▁additional	-6212
Pl	-6213
ka	-6214
ago	-6215
eal	-6216
whel	-6217
▁Cop	-6218
▁Jim	-6219
▁dam	-6220
▁Chat	-6221
▁Dest	-6222
haract	-6223
▁trade	-6224
▁Rename	-6225
Calendar	-6226
▁Control	-6227
▁caravan	-6228
▁chooses	-6229
▁component	-6230
▁intercessors	-6231
RA	-6232
Par	-6233
▁MB	-6234
ught	-6235
▁Days	-6236
Delete	-6237
istory	-6238
▁Short	-6239
▁doors	-6240
▁heels	-6241
▁paths	-6242
▁repro	-6243
▁sheep	-6244
▁Americ	-6245
▁Cancel	-6246
▁backup	-6247
▁formed	-6248
▁health	-6249
▁normal	-6250
▁repaid	-6251
▁Supreme	-6252
▁aggress	-6253
▁blasphe	-6254
▁learned	-6255
▁mistake	-6256
▁results	-6257
▁warrant	-6258
▁constant	-6259
▁Signature	-6260
▁willingly	-6261
▁unexpected	-6262
▁surrendered	-6263
nts	-6264
▁50	-6265
comp	-6266
noon	-6267
phic	-6268
uary	-6269
umin	-6270
▁veil	-6271
aining	-6272
lihood	-6273
▁Scale	-6274
▁posit	-6275
▁weeks	-6276
▁notice	-6277
▁plotted	-6278
▁creating	-6279
▁deceived	-6280
▁explained	-6281
▁rejoicing	-6282
lu	-6283
Qur	-6284
▁GO	-6285
ROAN	-6286
TING	-6287
kiga	-6288
zzle	-6289
▁weep	-6290
▁North	-6291
▁block	-6292
▁camel	-6293
▁cross	-6294
▁speaks	-6295
▁appreci	-6296
▁intends	-6297
▁restart	-6298
▁Bookmark	-6299
▁appeared	-6300
▁Completed	-6301
▁admonished	-6302
mo	-6303
ked	-6304
lla	-6305
▁Cr	-6306
chan	-6307
▁199	-6308
rated	-6309
stood	-6310
▁glass	-6311
▁lofty	-6312
▁Makkah	-6313
▁notify	-6314
▁relate	-6315
alendars	-6316
▁Appoint	-6317
▁endowed	-6318
▁release	-6319
▁slander	-6320
▁Guidance	-6321
▁restrain	-6322
▁shameful	-6323
IST	-6324
ays	-6325
▁0.	-6326
trees	-6327
▁adul	-6328
▁thro	-6329
▁west	-6330
▁Think	-6331
▁owner	-6332
▁Really	-6333
▁feeling	-6334
▁succour	-6335
▁preceded	-6336
▁encrypted	-6337
▁Companions	-6338
▁Thereafter	-6339
▁encompassed	-6340
▁participants	-6341
SV	-6342
]?	-6343
ov	-6344
eter	-6345
gest	-6346
icip	-6347
lick	-6348
▁ren	-6349
mbers	-6350
▁Self	-6351
▁east	-6352
▁grad	-6353
▁repl	-6354
▁roof	-6355
Window	-6356
action	-6357
▁loved	-6358
▁upper	-6359
▁Excuse	-6360
▁Firaun	-6361
▁Thanks	-6362
▁Profile	-6363
▁Writing	-6364
▁execute	-6365
▁mockery	-6366
▁announce	-6367
▁bookmark	-6368
▁GroupWise	-6369
▁performed	-6370
▁committing	-6371
▁livelihood	-6372
MB	-6373
hu	-6374
▁18	-6375
File	-6376
hick	-6377
▁Kai	-6378
▁Pra	-6379
▁Sul	-6380
ivate	-6381
redly	-6382
▁Baby	-6383
▁Mart	-6384
▁bull	-6385
▁rows	-6386
▁Quick	-6387
▁awful	-6388
▁Player	-6389
▁bodies	-6390
▁forces	-6391
▁attempt	-6392
▁favoured	-6393
▁fullscreen	-6394
▁inspiration	-6395
:)	-6396
?-	-6397
Bl	-6398
can	-6399
rip	-6400
{1}	-6401
▁uni	-6402
itous	-6403
▁atom	-6404
▁laws	-6405
allery	-6406
▁Greek	-6407
▁Title	-6408
▁court	-6409
▁scale	-6410
▁surpr	-6411
▁users	-6412
▁latter	-6413
▁merely	-6414
pecially	-6415
▁Minimum	-6416
▁examples	-6417
▁insolent	-6418
▁lightning	-6419
▁yesterday	-6420
▁comprehend	-6421
▁transgressing	-6422
▁kne	-6423
cends	-6424
▁Shaw	-6425
▁rent	-6426
aration	-6427
aternal	-6428
meeting	-6429
suredly	-6430
▁motion	-6431
▁perpet	-6432
▁rights	-6433
▁Request	-6434
▁Sending	-6435
▁charged	-6436
▁invited	-6437
▁Template	-6438
▁incoming	-6439
▁configure	-6440
▁lightened	-6441
▁searching	-6442
▁encompasses	-6443
SC	-6444
cho	-6445
iny	-6446
▁ma	-6447
Hide	-6448
iant	-6449
omen	-6450
▁Inc	-6451
▁amb	-6452
mbols	-6453
which	-6454
▁Cons	-6455
▁vast	-6456
▁Blaze	-6457
▁catch	-6458
▁icons	-6459
▁incur	-6460
▁rules	-6461
▁Rotate	-6462
▁caught	-6463
▁devout	-6464
▁judged	-6465
▁attract	-6466
▁dislike	-6467
▁members	-6468
▁opening	-6469
▁percent	-6470
▁prevail	-6471
▁walking	-6472
▁reported	-6473
▁treasure	-6474
("	-6475
cest	-6476
▁Flo	-6477
▁Gre	-6478
▁PLA	-6479
▁flu	-6480
▁Once	-6481
▁cave	-6482
▁magn	-6483
▁poet	-6484
attern	-6485
▁deser	-6486
▁smoke	-6487
▁camels	-6488
▁misled	-6489
quainted	-6490
▁Charact	-6491
▁violent	-6492
▁European	-6493
▁covering	-6494
▁declared	-6495
▁Attachment	-6496
asy	-6497
fts	-6498
iot	-6499
held	-6500
unch	-6501
vels	-6502
▁err	-6503
▁suf	-6504
▁Flag	-6505
Joseph	-6506
▁Valid	-6507
▁Whose	-6508
▁stick	-6509
▁denial	-6510
▁forced	-6511
▁ponder	-6512
▁tasted	-6513
lignment	-6514
▁Folders	-6515
▁nearest	-6516
▁opinion	-6517
▁instance	-6518
▁modified	-6519
▁treacher	-6520
▁Punishment	-6521
▁Sufficient	-6522
App	-6523
aud	-6524
▁Low	-6525
▁oil	-6526
▁tro	-6527
orrow	-6528
pless	-6529
▁amid	-6530
▁mate	-6531
unific	-6532
▁bought	-6533
▁buffer	-6534
▁honest	-6535
▁ignore	-6536
▁immort	-6537
▁thirst	-6538
▁Session	-6539
▁accompl	-6540
▁interface	-6541
▁witnessed	-6542
▁conjecture	-6543
▁environment	-6544
▁trustworthy	-6545
!)	-6546
Eat	-6547
nic	-6548
son	-6549
▁ph	-6550
ials	-6551
▁Bob	-6552
abber	-6553
▁boot	-6554
▁hung	-6555
▁rate	-6556
▁eager	-6557
▁rained	-6558
▁disappe	-6559
▁failure	-6560
▁mission	-6561
▁passing	-6562
▁stopped	-6563
▁overwrite	-6564
▁difficulty	-6565
▁humiliation	-6566
apt	-6567
lds	-6568
▁MD	-6569
▁ME	-6570
illy	-6571
▁Tim	-6572
▁dro	-6573
▁hom	-6574
▁oli	-6575
▁wat	-6576
▁Shit	-6577
▁ball	-6578
atures	-6579
▁Images	-6580
▁contro	-6581
▁eating	-6582
▁market	-6583
▁polythe	-6584
▁Atlantic	-6585
▁Starting	-6586
▁duration	-6587
▁suffered	-6588
▁documents	-6589
▁knowingly	-6590
▁Forbearing	-6591
▁wrongfully	-6592
Him	-6593
ati	-6594
pace	-6595
▁Vin	-6596
▁lic	-6597
aiman	-6598
these	-6599
▁MIME	-6600
▁Oper	-6601
▁boss	-6602
▁stub	-6603
ciples	-6604
▁Pelle	-6605
▁Proxy	-6606
▁ordin	-6607
▁Adjust	-6608
▁Scroll	-6609
▁ancest	-6610
▁spoils	-6611
▁writes	-6612
▁Develop	-6613
▁adorned	-6614
▁averted	-6615
▁fearful	-6616
▁feeding	-6617
▁highest	-6618
▁remains	-6619
▁absolute	-6620
▁elements	-6621
▁containing	-6622
%%	-6623
DVD	-6624
TER	-6625
damn	-6626
▁Its	-6627
▁Kon	-6628
▁bin	-6629
▁fix	-6630
inner	-6631
range	-6632
▁coin	-6633
▁gras	-6634
▁wond	-6635
▁Press	-6636
▁assum	-6637
▁canst	-6638
▁greed	-6639
▁loose	-6640
▁shake	-6641
ersonal	-6642
▁pearls	-6643
▁Majesty	-6644
▁shouldn	-6645
▁carrying	-6646
▁requires	-6647
▁extension	-6648
▁languages	-6649
▁scriptures	-6650
reg	-6651
▁HE	-6652
----	-6653
cient	-6654
orses	-6655
▁clar	-6656
▁hang	-6657
▁meas	-6658
▁soft	-6659
▁Ident	-6660
▁disag	-6661
▁exult	-6662
▁"{0}".	-6663
▁Python	-6664
▁checks	-6665
▁plenty	-6666
▁revive	-6667
▁contend	-6668
▁deserve	-6669
▁disdain	-6670
▁imagine	-6671
▁Creation	-6672
▁overwhel	-6673
▁username	-6674
▁Christian	-6675
▁entertain	-6676
▁conversation	-6677
sir	-6678
ules	-6679
ograp	-6680
verty	-6681
active	-6682
orrect	-6683
osques	-6684
▁Apply	-6685
▁Paper	-6686
▁seeks	-6687
iveness	-6688
▁Client	-6689
▁integr	-6690
▁method	-6691
▁poverty	-6692
▁rescued	-6693
▁hardened	-6694
▁belongeth	-6695
▁overtaken	-6696
▁consequences	-6697
ao	-6698
)],	-6699
Alam	-6700
YING	-6701
egal	-6702
lend	-6703
licy	-6704
itter	-6705
▁Remo	-6706
Alamin	-6707
urance	-6708
▁gains	-6709
▁outst	-6710
▁rests	-6711
▁Memory	-6712
▁border	-6713
▁latest	-6714
▁releas	-6715
▁Forgive	-6716
▁Trumpet	-6717
▁checked	-6718
▁addition	-6719
▁paradise	-6720
▁pleasing	-6721
▁reciting	-6722
▁sentence	-6723
▁correctly	-6724
▁altogether	-6725
▁pilgrimage	-6726
ERE	-6727
Tab	-6728
cip	-6729
▁MS	-6730
cret	-6731
pper	-6732
resp	-6733
▁Sho	-6734
▁mol	-6735
ileth	-6736
orage	-6737
▁diss	-6738
▁maid	-6739
▁mass	-6740
▁pair	-6741
▁radi	-6742
▁Birth	-6743
▁guile	-6744
▁mixed	-6745
ingerpr	-6746
▁Commit	-6747
▁resort	-6748
▁whence	-6749
▁Thamood	-6750
▁letters	-6751
▁deleting	-6752
▁Assuredly	-6753
▁beginning	-6754
▁neglected	-6755
▁Accessible	-6756
▁experience	-6757
Wor	-6758
cal	-6759
hor	-6760
ino	-6761
Find	-6762
riah	-6763
▁Pop	-6764
▁Tot	-6765
▁dut	-6766
▁via	-6767
Musli	-6768
Torah	-6769
▁Fore	-6770
▁Sean	-6771
▁silk	-6772
angels	-6773
▁Daddy	-6774
▁State	-6775
▁compl	-6776
▁flame	-6777
▁music	-6778
▁Reckon	-6779
▁doctor	-6780
▁figure	-6781
▁finish	-6782
▁quarre	-6783
▁revert	-6784
▁shadow	-6785
▁Japanese	-6786
▁disaster	-6787
▁intended	-6788
▁properly	-6789
▁persevere	-6790
▁provisions	-6791
▁disbeliever	-6792
ST	-6793
▁25	-6794
▁\\	-6795
▁ham	-6796
aning	-6797
farer	-6798
orters	-6799
▁alleg	-6800
▁buddy	-6801
▁deleg	-6802
▁legal	-6803
▁tries	-6804
▁Father	-6805
▁Modify	-6806
▁Sender	-6807
▁extent	-6808
▁hallow	-6809
▁served	-6810
▁Convert	-6811
▁Service	-6812
▁investig	-6813
▁meanings	-6814
▁terminal	-6815
▁arrogance	-6816
.5	-6817
NA	-6818
esa	-6819
hal	-6820
tar	-6821
▁Ka	-6822
rise	-6823
risy	-6824
zone	-6825
▁Mad	-6826
▁sand	-6827
▁suck	-6828
Remove	-6829
▁Arabs	-6830
▁elect	-6831
▁Normal	-6832
▁Report	-6833
▁engine	-6834
▁purcha	-6835
▁Archive	-6836
▁Opening	-6837
▁fasting	-6838
▁surface	-6839
▁Complete	-6840
▁destined	-6841
▁observed	-6842
▁fashioned	-6843
▁somewhere	-6844
▁directories	-6845
';	-6846
Ye	-6847
ART	-6848
joy	-6849
cles	-6850
rike	-6851
▁Bet	-6852
▁Est	-6853
▁rat	-6854
▁Hank	-6855
▁Prof	-6856
▁Undo	-6857
▁bare	-6858
▁race	-6859
seless	-6860
▁Yahoo	-6861
▁marks	-6862
▁waves	-6863
mendous	-6864
▁Attend	-6865
▁Return	-6866
▁oppose	-6867
▁Encrypt	-6868
▁discard	-6869
▁Sulaiman	-6870
▁breathed	-6871
▁wayfarer	-6872
▁Copyright	-6873
▁continued	-6874
▁tremendous	-6875
▁worshippers	-6876
IB	-6877
Rec	-6878
]."	-6879
▁Li	-6880
▁NO	-6881
▁cd	-6882
doer	-6883
okes	-6884
wood	-6885
▁Ang	-6886
osite	-6887
▁Prov	-6888
▁seat	-6889
inging	-6890
▁Rever	-6891
▁Setup	-6892
▁finds	-6893
▁focus	-6894
▁login	-6895
▁sperm	-6896
▁venge	-6897
▁convin	-6898
▁criter	-6899
▁fright	-6900
▁horses	-6901
▁launch	-6902
▁leader	-6903
▁sounds	-6904
▁Browser	-6905
▁Refresh	-6906
▁offered	-6907
▁Creating	-6908
▁Database	-6909
▁bringing	-6910
▁symbolic	-6911
▁hypocrisy	-6912
Suff	-6913
View	-6914
ajor	-6915
pent	-6916
stru	-6917
unge	-6918
upid	-6919
▁SHA	-6920
▁Upd	-6921
grams	-6922
▁Poin	-6923
▁mach	-6924
▁meant	-6925
ization	-6926
▁Target	-6927
▁adding	-6928
▁divine	-6929
▁explan	-6930
▁scales	-6931
ulations	-6932
▁Process	-6933
▁forbids	-6934
▁include	-6935
▁keepers	-6936
▁showing	-6937
▁listening	-6938
▁parameters	-6939
▁intercessor	-6940
▁distribution	-6941
LY	-6942
ij	-6943
Jews	-6944
Name	-6945
apse	-6946
char	-6947
geny	-6948
idge	-6949
utta	-6950
▁Tha	-6951
▁lif	-6952
▁rad	-6953
itary	-6954
▁Quit	-6955
▁fing	-6956
▁puts	-6957
▁tech	-6958
letion	-6959
nippet	-6960
▁Paste	-6961
▁Point	-6962
▁begot	-6963
▁bewit	-6964
▁embra	-6965
▁hopes	-6966
▁moves	-6967
▁obeys	-6968
▁seest	-6969
▁swore	-6970
▁zakat	-6971
▁disapp	-6972
▁exhort	-6973
▁growth	-6974
▁thinks	-6975
▁tribes	-6976
▁rehears	-6977
▁aversion	-6978
▁capacity	-6979
▁definite	-6980
▁problems	-6981
▁purifies	-6982
▁requital	-6983
▁transfer	-6984
▁bewitched	-6985
▁remaining	-6986
▁transport	-6987
▁vengeance	-6988
▁prohibited	-6989
▁understood	-6990
Gl	-6991
col	-6992
hon	-6993
rif	-6994
bing	-6995
kish	-6996
▁Bas	-6997
▁Bus	-6998
▁Cat	-6999
▁fee	-7000
▁tyr	-7001
▁Also	-7002
▁Drag	-7003
▁Vari	-7004
▁gush	-7005
▁subd	-7006
▁urge	-7007
▁brand	-7008
▁memos	-7009
▁quiet	-7010
▁wages	-7011
ability	-7012
ensions	-7013
▁acting	-7014
▁assert	-7015
▁facing	-7016
▁faults	-7017
▁locked	-7018
▁commits	-7019
▁filters	-7020
▁Original	-7021
▁attained	-7022
▁listened	-7023
▁regarded	-7024
▁advantage	-7025
▁protected	-7026
▁religious	-7027
▁Unexpected	-7028
Me	-7029
bon	-7030
des	-7031
gods	-7032
ocom	-7033
▁Ten	-7034
▁Uns	-7035
ament	-7036
grade	-7037
▁Doom	-7038
▁circ	-7039
enance	-7040
icious	-7041
▁Obser	-7042
▁Split	-7043
▁harsh	-7044
forever	-7045
▁element	-7046
▁progeny	-7047
▁Language	-7048
▁supports	-7049
▁administr	-7050
▁ancestors	-7051
▁inheritors	-7052
OB	-7053
-12	-7054
ibly	-7055
plif	-7056
ront	-7057
▁Cry	-7058
▁ate	-7059
storm	-7060
value	-7061
▁News	-7062
▁diff	-7063
▁fled	-7064
▁issu	-7065
▁scour	-7066
▁Action	-7067
▁planet	-7068
▁rescue	-7069
▁Package	-7070
▁extract	-7071
▁submiss	-7072
▁Available	-7073
▁agreement	-7074
▁wandering	-7075
▁foundation	-7076
";	-7077
SS	-7078
fee	-7079
ixt	-7080
▁da	-7081
umbn	-7082
yper	-7083
▁Ele	-7084
▁UID	-7085
▁org	-7086
▁Long	-7087
▁Sure	-7088
▁expi	-7089
engers	-7090
▁Alone	-7091
▁Firon	-7092
uttaqun	-7093
▁Double	-7094
▁German	-7095
▁Widget	-7096
▁absence	-7097
▁binding	-7098
▁revives	-7099
▁willing	-7100
▁occurrence	-7101
▁distinction	-7102
%1	-7103
Sp	-7104
TH	-7105
Not	-7106
cili	-7107
host	-7108
rink	-7109
uled	-7110
wers	-7111
▁Abs	-7112
assin	-7113
▁blue	-7114
▁torn	-7115
igrate	-7116
strate	-7117
▁Recom	-7118
▁Since	-7119
▁Theme	-7120
▁alter	-7121
▁arrow	-7122
▁stage	-7123
▁survi	-7124
ganizer	-7125
▁herein	-7126
▁Another	-7127
▁FUCKING	-7128
▁History	-7129
▁Forgiver	-7130
▁attached	-7131
▁conveyed	-7132
▁encoding	-7133
▁assistant	-7134
▁despaired	-7135
▁situation	-7136
▁obligatory	-7137
▁sovereignty	-7138
▁responsibility	-7139
IV	-7140
▁13	-7141
▁ge	-7142
From	-7143
iter	-7144
mate	-7145
▁Fog	-7146
▁Pak	-7147
▁Pat	-7148
▁Row	-7149
▁Wow	-7150
ashed	-7151
false	-7152
▁Card	-7153
▁Kore	-7154
▁Phil	-7155
▁Tree	-7156
semble	-7157
▁Write	-7158
▁apply	-7159
▁rebel	-7160
▁sects	-7161
▁spare	-7162
▁alarms	-7163
Paradise	-7164
▁Restore	-7165
▁Vincent	-7166
▁planned	-7167
▁related	-7168
▁compared	-7169
▁disputes	-7170
▁Knowledge	-7171
▁difference	-7172
En	-7173
Pr	-7174
sk	-7175
Res	-7176
bol	-7177
▁16	-7178
▁IC	-7179
Iesa	-7180
REAM	-7181
edic	-7182
link	-7183
bsite	-7184
▁fart	-7185
▁lied	-7186
▁Brian	-7187
▁Ekiga	-7188
▁types	-7189
▁Colors	-7190
▁humbly	-7191
▁preach	-7192
▁shared	-7193
▁united	-7194
▁waters	-7195
▁outcome	-7196
▁reports	-7197
▁Powerful	-7198
▁conflict	-7199
▁instruct	-7200
▁violence	-7201
▁vegetation	-7202
▁undoubtedly	-7203
▁authenticate	-7204
11	-7205
KE	-7206
Up	-7207
]:	-7208
trl	-7209
hole	-7210
jeel	-7211
seem	-7212
cknow	-7213
icode	-7214
ideos	-7215
ology	-7216
zilla	-7217
▁Base	-7218
▁Both	-7219
▁crad	-7220
umbent	-7221
▁Usage	-7222
▁employ	-7223
▁forest	-7224
▁fornic	-7225
▁haught	-7226
▁revenge	-7227
▁servers	-7228
▁thereto	-7229
▁Security	-7230
▁ascribed	-7231
▁exception	-7232
▁proclaimed	-7233
EX	-7234
FF	-7235
ani	-7236
hys	-7237
IGHT	-7238
irst	-7239
pare	-7240
uman	-7241
▁AND	-7242
▁Che	-7243
▁Due	-7244
offee	-7245
ropri	-7246
▁Drop	-7247
▁Eden	-7248
▁bill	-7249
▁legs	-7250
▁warm	-7251
▁Layer	-7252
▁dying	-7253
▁occas	-7254
▁sched	-7255
▁Effect	-7256
▁Injeel	-7257
▁flocks	-7258
▁player	-7259
▁region	-7260
▁repres	-7261
▁tracks	-7262
ependent	-7263
▁appears	-7264
▁clothes	-7265
▁consume	-7266
▁madness	-7267
▁mosques	-7268
▁shadows	-7269
▁Birthday	-7270
▁Continue	-7271
▁captives	-7272
▁intellig	-7273
▁sincerely	-7274
▁alternation	-7275
ESS	-7276
Busy	-7277
Cont	-7278
▁Lat	-7279
▁Yea	-7280
Islam	-7281
LAUGH	-7282
field	-7283
irgin	-7284
▁idle	-7285
▁tick	-7286
▁'{0}'	-7287
▁Match	-7288
▁Super	-7289
▁rocks	-7290
Worship	-7291
▁Ignore	-7292
▁lowest	-7293
▁foreign	-7294
▁herself	-7295
▁miracle	-7296
▁precise	-7297
▁stretch	-7298
▁strikes	-7299
▁totally	-7300
▁watches	-7301
▁Absolute	-7302
▁contract	-7303
▁filename	-7304
aq	-7305
acc	-7306
▁23	-7307
Even	-7308
ancy	-7309
iger	-7310
▁Fax	-7311
▁Rob	-7312
▁Sat	-7313
ample	-7314
itled	-7315
ystem	-7316
▁Real	-7317
▁SMTP	-7318
▁calm	-7319
▁ende	-7320
▁meat	-7321
▁Haman	-7322
▁Revel	-7323
▁burst	-7324
▁climb	-7325
▁pursu	-7326
▁Retrie	-7327
▁append	-7328
▁guards	-7329
▁higher	-7330
▁plants	-7331
▁prompt	-7332
▁weapons	-7333
omination	-7334
▁defeated	-7335
▁division	-7336
▁preserve	-7337
▁rotation	-7338
▁concealed	-7339
▁condemned	-7340
▁including	-7341
▁collection	-7342
)'	-7343
Let	-7344
mas	-7345
tel	-7346
▁"(	-7347
▁MA	-7348
oper	-7349
road	-7350
▁Adv	-7351
▁Cap	-7352
▁Dri	-7353
▁Kal	-7354
ggles	-7355
izing	-7356
▁Feed	-7357
▁Hera	-7358
▁Talk	-7359
▁begu	-7360
▁rout	-7361
▁Merge	-7362
▁Ready	-7363
▁occup	-7364
▁perce	-7365
ilities	-7366
▁schema	-7367
▁bestows	-7368
▁blindly	-7369
▁context	-7370
▁entries	-7371
▁scourge	-7372
▁American	-7373
▁Function	-7374
▁Possible	-7375
▁admonish	-7376
▁begotten	-7377
▁numerous	-7378
▁pictures	-7379
▁vertical	-7380
▁Documents	-7381
▁Reckoning	-7382
▁disciples	-7383
▁accordance	-7384
45	-7385
;.	-7386
oo	-7387
ILL	-7388
dev	-7389
USIC	-7390
into	-7391
vals	-7392
▁Jon	-7393
anged	-7394
▁Kind	-7395
▁Step	-7396
▁grew	-7397
▁scan	-7398
GRUNTS	-7399
UCKLES	-7400
▁Total	-7401
▁acted	-7402
▁maxim	-7403
▁ungod	-7404
▁wings	-7405
▁Bottom	-7406
▁breaks	-7407
▁grapes	-7408
▁simply	-7409
▁struct	-7410
▁Central	-7411
▁abiders	-7412
▁intoxic	-7413
▁Divinity	-7414
▁Pakistan	-7415
▁Overwrite	-7416
▁iCalendar	-7417
▁spreading	-7418
**	-7419
Man	-7420
pre	-7421
vag	-7422
▁Da	-7423
IGHS	-7424
ball	-7425
▁Foc	-7426
▁Mir	-7427
▁ice	-7428
akers	-7429
servi	-7430
tense	-7431
ville	-7432
▁Hang	-7433
▁Plan	-7434
▁milk	-7435
▁obli	-7436
▁Month	-7437
▁brain	-7438
▁ended	-7439
▁escap	-7440
▁grows	-7441
▁study	-7442
▁walks	-7443
▁behave	-7444
▁maketh	-7445
servient	-7446
▁Confirm	-7447
▁Outlook	-7448
▁causing	-7449
▁fellows	-7450
▁enduring	-7451
▁entering	-7452
▁inclined	-7453
▁believeth	-7454
▁eternally	-7455
▁everybody	-7456
▁implement	-7457
▁charitable	-7458
▁protecting	-7459
Ass	-7460
bet	-7461
eep	-7462
▁..	-7463
arct	-7464
gent	-7465
rast	-7466
▁Alt	-7467
▁Box	-7468
▁Squ	-7469
adyan	-7470
▁Obey	-7471
▁loud	-7472
▁tags	-7473
ligion	-7474
▁Names	-7475
▁freed	-7476
▁funny	-7477
▁heark	-7478
▁Madyan	-7479
▁Mother	-7480
▁Purity	-7481
▁depend	-7482
▁murder	-7483
▁recent	-7484
▁scared	-7485
▁Antarct	-7486
▁Descend	-7487
▁diverse	-7488
▁engaged	-7489
▁finally	-7490
▁repents	-7491
ciliation	-7492
▁Incoming	-7493
▁advanced	-7494
▁sickness	-7495
▁somebody	-7496
▁emigrated	-7497
▁initializ	-7498
▁resources	-7499
▁Recompense	-7500
IG	-7501
cs	-7502
va	-7503
ATE	-7504
Nay	-7505
log	-7506
lst	-7507
anqu	-7508
irms	-7509
▁FOR	-7510
▁Pan	-7511
▁Son	-7512
▁ace	-7513
athed	-7514
graph	-7515
▁Hath	-7516
▁exem	-7517
▁hunt	-7518
▁jobs	-7519
▁note	-7520
▁uses	-7521
queror	-7522
▁dates	-7523
▁earns	-7524
▁haste	-7525
▁mates	-7526
certain	-7527
verting	-7528
▁missed	-7529
▁seduce	-7530
▁surety	-7531
▁Printer	-7532
▁distant	-7533
▁forsake	-7534
▁intense	-7535
▁befriend	-7536
▁bringeth	-7537
▁extravag	-7538
▁penitent	-7539
▁afterward	-7540
▁connected	-7541
▁corrupted	-7542
▁entrusted	-7543
▁afflictive	-7544
▁restrained	-7545
▁subservient	-7546
▁compensation	-7547
▁relationship	-7548
GL	-7549
pg	-7550
uli	-7551
....	-7552
oned	-7553
rich	-7554
room	-7555
task	-7556
▁hel	-7557
▁tim	-7558
▁vot	-7559
aging	-7560
hance	-7561
▁Bang	-7562
▁Curs	-7563
▁Warn	-7564
▁drew	-7565
▁mart	-7566
▁susp	-7567
▁Input	-7568
▁impat	-7569
▁palms	-7570
▁repel	-7571
▁chains	-7572
▁injury	-7573
▁earthqu	-7574
▁whereat	-7575
▁wrought	-7576
▁chastity	-7577
▁desiring	-7578
▁directed	-7579
▁divorced	-7580
▁printing	-7581
▁realized	-7582
▁confirmed	-7583
▁determine	-7584
▁happening	-7585
▁Antarctica	-7586
▁persecution	-7587
Mo	-7588
ayb	-7589
cra	-7590
ube	-7591
▁KD	-7592
iler	-7593
inns	-7594
ores	-7595
tery	-7596
▁Mur	-7597
▁Tri	-7598
▁WIT	-7599
▁Menu	-7600
▁Wall	-7601
▁mans	-7602
▁suit	-7603
verage	-7604
▁Items	-7605
▁artic	-7606
▁bitch	-7607
▁fluid	-7608
▁panel	-7609
▁spool	-7610
▁train	-7611
▁wrote	-7612
itution	-7613
▁Recall	-7614
▁agreed	-7615
▁illust	-7616
▁smooth	-7617
▁trusts	-7618
complete	-7619
ctionary	-7620
▁Without	-7621
▁consult	-7622
▁disable	-7623
▁dispers	-7624
▁forgave	-7625
▁invoked	-7626
▁license	-7627
▁trumpet	-7628
▁Terminal	-7629
▁confused	-7630
▁directly	-7631
▁struggle	-7632
▁Bookmarks	-7633
▁sometimes	-7634
▁accessible	-7635
▁recognized	-7636
,]	-7637
ARS	-7638
bles	-7639
ends	-7640
hens	-7641
rupt	-7642
▁Mis	-7643
GROAN	-7644
ivity	-7645
nding	-7646
unity	-7647
▁Capt	-7648
▁Four	-7649
▁lean	-7650
▁lots	-7651
▁spot	-7652
efined	-7653
▁Kaiju	-7654
▁Micro	-7655
▁Sound	-7656
▁boast	-7657
▁chest	-7658
▁lucky	-7659
▁roast	-7660
▁smart	-7661
▁Browse	-7662
▁Living	-7663
▁mayest	-7664
ropriate	-7665
▁PLAYING	-7666
▁availed	-7667
▁infidel	-7668
▁workers	-7669
▁outgoing	-7670
▁Categories	-7671
▁earthquake	-7672
▁Sovereignty	-7673
abul	-7674
▁cit	-7675
▁ori	-7676
▁sme	-7677
stone	-7678
▁	-7679
e	-7680
t	-7681
o	-7682
a	-7683
n	-7684
i	-7685
h	-7686
s	-7687
r	-7688
l	-7689
d	-7690
u	-7691
y	-7692
m	-7693
w	-7694
f	-7695
c	-7696
g	-7697
p	-7698
.	-7699
b	-7700
,	-7701
v	-7702
k	-7703
A	-7704
T	-7705
I	-7706
H	-7707
W	-7708
S	-7709
'	-7710
M	-7711
(	-7712
)	-7713
:	-7714
L	-7715
"	-7716
-	-7717
C	-7718
?	-7719
G	-7720
O	-7721
D	-7722
P	-7723
B	-7724
;	-7725
x	-7726
!	-7727
N	-7728
E	-7729
F	-7730
R	-7731
Y	-7732
j	-7733
%	-7734
_	-7735
U	-7736
[	-7737
]	-7738
1	-7739
q	-7740
K	-7741
V	-7742
z	-7743
0	-7744
/	-7745
J	-7746
2	-7747
“	-7748
”	-7749
’	-7750
&	-7751
Q	-7752
3	-7753
–	-7754
5	-7755
‘	-7756
4	-7757
8	-7758
9	-7759
6	-7760
Z	-7761
—	-7762
7	-7763
{	-7764
}	-7765
X	-7766
*	-7767
\	-7768
+	-7769
=	-7770
♪	-7771
#	-7772
~	-7773
>	-7774
$	-7775
`	-7776
·	-7777
<	-7778
é	-7779
@	-7780
ü	-7781
©	-7782
×	-7783
á	-7784
ö	-7785
í	-7786
^	-7787
è	-7788
ا	-7789
Ö	-7790
ä	-7791
ó	-7792
ل	-7793
£	-7794
	-7795
ه	-7796
°	-7797
ي	-7798
ë	-7799
̊	-7800
ā	-7801
	-7802
ñ	-7803
â	-7804
•	-7805
ş	-7806
Á	-7807
ν	-7808
à	-7809
ø	-7810
ŏ	-7811
μ	-7812
ر	-7813
æ	-7814
ô	-7815
õ	-7816
ú	-7817
š	-7818
م	-7819
å	-7820
⁄	-7821
ع	-7822
ã	-7823
ç	-7824
ï	-7825
ė	-7826
ı	-7827
ł	-7828
œ	-7829
ţ	-7830
ئ	-7831
س	-7832
ف	-7833
ن	-7834
و	-7835
ă	-7836
π	-7837
€	-7838
♫	-7839
Ü	-7840
Ā	-7841
ب	-7842
ت	-7843
ح	-7844
	-7845
É	-7846
č	-7847
́	-7848
→	-7849
Ð	-7850
ð	-7851
ž	-7852
ج	-7853
د	-7854
ط	-7855
À	-7856
Å	-7857
ē	-7858
ń	-7859
ň	-7860
Š	-7861
ầ	-7862
ị	-7863
¡	-7864
­	-7865
î	-7866
ý	-7867
ĭ	-7868
ص	-7869
ق	-7870
া	-7871
ව	-7872
∕	-7873
プ	-7874
ğ	-7875
ī	-7876
ő	-7877
ū	-7878
ŭ	-7879
θ	-7880
е	-7881
サ	-7882
ル	-7883
ン	-7884
品	-7885
食	-7886
	-7887
	-7888
	-7889
¤	-7890
®	-7891
±	-7892
Ç	-7893
ß	-7894
û	-7895
Ś	-7896
Ş	-7897
н	-7898
р	-7899
ش	-7900
غ	-7901
ك	-7902
ং	-7903
দ	-7904
ন	-7905
ব	-7906
ম	-7907
র	-7908
শ	-7909
স	-7910
ি	-7911
ো	-7912
ය	-7913
ා	-7914
ේ	-7915
ễ	-7916
′	-7917
≤	-7918
≥	-7919
か	-7920
な	-7921
和	-7922
字	-7923
束	-7924
漢	-7925
	-7926
Ä	-7927
Í	-7928
Î	-7929
Õ	-7930
Ø	-7931
Ú	-7932
ì	-7933
ò	-7934
÷	-7935
Č	-7936
ę	-7937
ě	-7938
İ	-7939
ļ	-7940
Ł	-7941
Ō	-7942
ō	-7943
Ř	-7944
ź	-7945
ż	-7946
Ž	-7947
ơ	-7948
ư	-7949
̈	-7950
α	-7951
β	-7952
λ	-7953
φ	-7954
ω	-7955
А	-7956
Ч	-7957
а	-7958
в	-7959
д	-7960
й	-7961
о	-7962
п	-7963
ආ	-7964
ජ	-7965
බ	-7966
ු	-7967
ෝ	-7968
ạ	-7969
ệ	-7970
ọ	-7971
ộ	-7972
ỳ	-7973
‟	-7974
√	-7975
∣	-7976
≠	-7977
⌈	-7978
⌉	-7979
⌊	-7980
⌋	-7981
さ	-7982
に	-7983
の	-7984
ん	-7985
ス	-7986
ッ	-7987
ト	-7988
ラ	-7989
一	-7990
人	-7991
宇	-7992
材	-7993
治	-7994
秒	-7995
